{
  "version": "1.0",
  "truncation": {
    "direction": "Right",
    "max_length": 32,
    "strategy": "LongestFirst",
    "stride": 0
  },
  "padding": {
    "strategy": {
      "Fixed": 32
    },
    "direction": "Right",
    "pad_to_multiple_of": null,
    "pad_id": 3,
    "pad_type_id": 0,
    "pad_token": "[PAD]"
  },
  "added_tokens": [
    {
      "id": 0,
      "content": "[UNK]",
      "single_word": false,
      "lstrip": false,
      "rstrip": false,
      "normalized": false,
      "special": true
    },
    {
      "id": 1,
      "content": "[CLS]",
      "single_word": false,
      "lstrip": false,
      "rstrip": false,
      "normalized": false,
      "special": true
    },
    {
      "id": 2,
      "content": "[SEP]",
      "single_word": false,
      "lstrip": false,
      "rstrip": false,
      "normalized": false,
      "special": true
    },
    {
      "id": 3,
      "content": "[PAD]",
      "single_word": false,
      "lstrip": false,
      "rstrip": false,
      "normalized": false,
      "special": true
    },
    {
      "id": 4,
      "content": "[MASK]",
      "single_word": false,
      "lstrip": false,
      "rstrip": false,
      "normalized": false,
      "special": true
    },
    {
      "id": 8192,
      "content": "[CLS2]",
      "single_word": false,
      "lstrip": false,
      "rstrip": false,
      "normalized": false,
      "special": true
    }
  ],
  "normalizer": {
    "type": "Sequence",
    "normalizers": [
      {
        "type": "Lowercase"
      },
      {
        "type": "NFC"
      }
    ]
  },
  "pre_tokenizer": {
    "type": "ByteLevel",
    "add_prefix_space": false,
    "trim_offsets": true,
    "use_regex": true
  },
  "post_processor": {
    "type": "TemplateProcessing",
    "single": [
      {
        "SpecialToken": {
          "id": "[CLS]",
          "type_id": 0
        }
      },
      {
        "Sequence": {
          "id": "A",
          "type_id": 0
        }
      },
      {
        "SpecialToken": {
          "id": "[SEP]",
          "type_id": 0
        }
      }
    ],
    "pair": [
      {
        "SpecialToken": {
          "id": "[CLS]",
          "type_id": 0
        }
      },
      {
        "Sequence": {
          "id": "A",
          "type_id": 0
        }
      },
      {
        "SpecialToken": {
          "id": "[SEP]",
          "type_id": 0
        }
      },
      {
        "Sequence": {
          "id": "B",
          "type_id": 1
        }
      },
      {
        "SpecialToken": {
          "id": "[SEP]",
          "type_id": 1
        }
      }
    ],
    "special_tokens": {
      "[CLS]": {
        "id": "[CLS]",
        "ids": [
          1
        ],
        "tokens": [
          "[CLS]"
        ]
      },
      "[SEP]": {
        "id": "[SEP]",
        "ids": [
          2
        ],
        "tokens": [
          "[SEP]"
        ]
      }
    }
  },
  "decoder": {
    "type": "ByteLevel",
    "add_prefix_space": true,
    "trim_offsets": true,
    "use_regex": true
  },
  "model": {
    "type": "BPE",
    "dropout": null,
    "unk_token": "[UNK]",
    "continuing_subword_prefix": null,
    "end_of_word_suffix": null,
    "fuse_unk": false,
    "byte_fallback": false,
    "ignore_merges": false,
    "vocab": {
      "[UNK]": 0,
      "[CLS]": 1,
      "[SEP]": 2,
      "[PAD]": 3,
      "[MASK]": 4,
      "!": 5,
      "\"": 6,
      "#": 7,
      "$": 8,
      "%": 9,
      "&": 10,
      "'": 11,
      "(": 12,
      ")": 13,
      "*": 14,
      "+": 15,
      ",": 16,
      "-": 17,
      ".": 18,
      "/": 19,
      "0": 20,
      "1": 21,
      "2": 22,
      "3": 23,
      "4": 24,
      "5": 25,
      "6": 26,
      "7": 27,
      "8": 28,
      "9": 29,
      ":": 30,
      ";": 31,
      "<": 32,
      "=": 33,
      ">": 34,
      "?": 35,
      "@": 36,
      "A": 37,
      "B": 38,
      "C": 39,
      "D": 40,
      "E": 41,
      "F": 42,
      "G": 43,
      "H": 44,
      "I": 45,
      "J": 46,
      "K": 47,
      "L": 48,
      "M": 49,
      "N": 50,
      "O": 51,
      "P": 52,
      "Q": 53,
      "R": 54,
      "S": 55,
      "T": 56,
      "U": 57,
      "V": 58,
      "W": 59,
      "X": 60,
      "Y": 61,
      "Z": 62,
      "[": 63,
      "\\": 64,
      "]": 65,
      "^": 66,
      "_": 67,
      "`": 68,
      "a": 69,
      "b": 70,
      "c": 71,
      "d": 72,
      "e": 73,
      "f": 74,
      "g": 75,
      "h": 76,
      "i": 77,
      "j": 78,
      "k": 79,
      "l": 80,
      "m": 81,
      "n": 82,
      "o": 83,
      "p": 84,
      "q": 85,
      "r": 86,
      "s": 87,
      "t": 88,
      "u": 89,
      "v": 90,
      "w": 91,
      "x": 92,
      "y": 93,
      "z": 94,
      "{": 95,
      "|": 96,
      "}": 97,
      "~": 98,
      "¡": 99,
      "¢": 100,
      "£": 101,
      "¤": 102,
      "¥": 103,
      "¦": 104,
      "§": 105,
      "¨": 106,
      "©": 107,
      "ª": 108,
      "«": 109,
      "¬": 110,
      "®": 111,
      "¯": 112,
      "°": 113,
      "±": 114,
      "²": 115,
      "³": 116,
      "´": 117,
      "µ": 118,
      "¶": 119,
      "·": 120,
      "¸": 121,
      "¹": 122,
      "º": 123,
      "»": 124,
      "¼": 125,
      "½": 126,
      "¾": 127,
      "¿": 128,
      "À": 129,
      "Á": 130,
      "Â": 131,
      "Ã": 132,
      "Ä": 133,
      "Å": 134,
      "Æ": 135,
      "Ç": 136,
      "È": 137,
      "É": 138,
      "Ê": 139,
      "Ë": 140,
      "Ì": 141,
      "Í": 142,
      "Î": 143,
      "Ï": 144,
      "Ð": 145,
      "Ñ": 146,
      "Ò": 147,
      "Ó": 148,
      "Ô": 149,
      "Õ": 150,
      "Ö": 151,
      "×": 152,
      "Ø": 153,
      "Ù": 154,
      "Ú": 155,
      "Û": 156,
      "Ü": 157,
      "Ý": 158,
      "Þ": 159,
      "ß": 160,
      "à": 161,
      "á": 162,
      "â": 163,
      "ã": 164,
      "ä": 165,
      "å": 166,
      "æ": 167,
      "ç": 168,
      "è": 169,
      "é": 170,
      "ê": 171,
      "ë": 172,
      "ì": 173,
      "í": 174,
      "î": 175,
      "ï": 176,
      "ð": 177,
      "ñ": 178,
      "ò": 179,
      "ó": 180,
      "ô": 181,
      "õ": 182,
      "ö": 183,
      "÷": 184,
      "ø": 185,
      "ù": 186,
      "ú": 187,
      "û": 188,
      "ü": 189,
      "ý": 190,
      "þ": 191,
      "ÿ": 192,
      "Ā": 193,
      "ā": 194,
      "Ă": 195,
      "ă": 196,
      "Ą": 197,
      "ą": 198,
      "Ć": 199,
      "ć": 200,
      "Ĉ": 201,
      "ĉ": 202,
      "Ċ": 203,
      "ċ": 204,
      "Č": 205,
      "č": 206,
      "Ď": 207,
      "ď": 208,
      "Đ": 209,
      "đ": 210,
      "Ē": 211,
      "ē": 212,
      "Ĕ": 213,
      "ĕ": 214,
      "Ė": 215,
      "ė": 216,
      "Ę": 217,
      "ę": 218,
      "Ě": 219,
      "ě": 220,
      "Ĝ": 221,
      "ĝ": 222,
      "Ğ": 223,
      "ğ": 224,
      "Ġ": 225,
      "ġ": 226,
      "Ģ": 227,
      "ģ": 228,
      "Ĥ": 229,
      "ĥ": 230,
      "Ħ": 231,
      "ħ": 232,
      "Ĩ": 233,
      "ĩ": 234,
      "Ī": 235,
      "ī": 236,
      "Ĭ": 237,
      "ĭ": 238,
      "Į": 239,
      "į": 240,
      "İ": 241,
      "ı": 242,
      "Ĳ": 243,
      "ĳ": 244,
      "Ĵ": 245,
      "ĵ": 246,
      "Ķ": 247,
      "ķ": 248,
      "ĸ": 249,
      "Ĺ": 250,
      "ĺ": 251,
      "Ļ": 252,
      "ļ": 253,
      "Ľ": 254,
      "ľ": 255,
      "Ŀ": 256,
      "ŀ": 257,
      "Ł": 258,
      "ł": 259,
      "Ń": 260,
      "co": 261,
      "ww": 262,
      "ht": 263,
      "tp": 264,
      "http": 265,
      "//": 266,
      "://": 267,
      "com": 268,
      "in": 269,
      "er": 270,
      "https": 271,
      "www": 272,
      "or": 273,
      "en": 274,
      "ar": 275,
      "es": 276,
      "an": 277,
      "on": 278,
      "at": 279,
      "al": 280,
      "ch": 281,
      "de": 282,
      "st": 283,
      "ro": 284,
      "le": 285,
      "ct": 286,
      "re": 287,
      "it": 288,
      "ag": 289,
      "20": 290,
      "ic": 291,
      "as": 292,
      "pro": 293,
      "th": 294,
      "il": 295,
      "du": 296,
      "lo": 297,
      "ing": 298,
      "ion": 299,
      "id": 300,
      "el": 301,
      "ent": 302,
      "am": 303,
      "htm": 304,
      "ho": 305,
      "is": 306,
      "ur": 307,
      "html": 308,
      "un": 309,
      "et": 310,
      "produ": 311,
      "bo": 312,
      "ac": 313,
      "to": 314,
      "ed": 315,
      "product": 316,
      "ad": 317,
      "li": 318,
      "ph": 319,
      "us": 320,
      "fo": 321,
      "-%": 322,
      "ew": 323,
      "ta": 324,
      "ate": 325,
      "te": 326,
      "and": 327,
      "uk": 328,
      "em": 329,
      "vi": 330,
      "for": 331,
      "php": 332,
      "age": 333,
      "ap": 334,
      "ut": 335,
      "ra": 336,
      "ec": 337,
      "org": 338,
      "no": 339,
      "kr": 340,
      "se": 341,
      "/?": 342,
      "art": 343,
      "im": 344,
      "la": 345,
      "um": 346,
      "201": 347,
      "po": 348,
      "log": 349,
      "ers": 350,
      "ig": 351,
      "the": 352,
      "10": 353,
      "cate": 354,
      "con": 355,
      "eb": 356,
      "est": 357,
      "mo": 358,
      "gor": 359,
      "iv": 360,
      "ard": 361,
      "ir": 362,
      "au": 363,
      "page": 364,
      "ef": 365,
      "categor": 366,
      "ess": 367,
      "ie": 368,
      "ab": 369,
      "ol": 370,
      "99": 371,
      "ma": 372,
      "be": 373,
      "bd": 374,
      "81": 375,
      "ce": 376,
      "new": 377,
      "00": 378,
      "ation": 379,
      "95": 380,
      "of": 381,
      "83": 382,
      "sho": 383,
      "/%": 384,
      "blog": 385,
      "all": 386,
      "sp": 387,
      "do": 388,
      "category": 389,
      "info": 390,
      "jo": 391,
      "82": 392,
      "bf": 393,
      "up": 394,
      "ction": 395,
      "di": 396,
      "ul": 397,
      "qu": 398,
      "ter": 399,
      "ri": 400,
      "ort": 401,
      "ay": 402,
      "inde": 403,
      "me": 404,
      "sh": 405,
      "ang": 406,
      "af": 407,
      "mar": 408,
      "col": 409,
      "products": 410,
      "80": 411,
      "pr": 412,
      "index": 413,
      "ver": 414,
      "84": 415,
      "11": 416,
      "202": 417,
      "ia": 418,
      "od": 419,
      "news": 420,
      "ak": 421,
      "ine": 422,
      "tag": 423,
      "pl": 424,
      "12": 425,
      "ub": 426,
      "wor": 427,
      "om": 428,
      "board": 429,
      "aa": 430,
      "88": 431,
      "so": 432,
      "ev": 433,
      "94": 434,
      "par": 435,
      "bb": 436,
      "ai": 437,
      "view": 438,
      "shop": 439,
      "ist": 440,
      "wh": 441,
      "op": 442,
      "25": 443,
      "ae": 444,
      "ke": 445,
      "ser": 446,
      "sch": 447,
      "les": 448,
      "ber": 449,
      "ment": 450,
      "yo": 451,
      "pe": 452,
      "tr": 453,
      "colle": 454,
      "ne": 455,
      "arch": 456,
      "ve": 457,
      "br": 458,
      "he": 459,
      "ant": 460,
      "go": 461,
      "ies": 462,
      "90": 463,
      "der": 464,
      "fl": 465,
      "ba": 466,
      "85": 467,
      "ty": 468,
      "collection": 469,
      "13": 470,
      "sc": 471,
      "list": 472,
      "15": 473,
      "ack": 474,
      "ass": 475,
      "97": 476,
      "bc": 477,
      "ung": 478,
      "ex": 479,
      "ok": 480,
      "os": 481,
      "fi": 482,
      "16": 483,
      "ice": 484,
      "86": 485,
      "per": 486,
      "14": 487,
      "ik": 488,
      "fr": 489,
      "ts": 490,
      "fe": 491,
      "ip": 492,
      "port": 493,
      "cl": 494,
      "end": 495,
      "=&": 496,
      "are": 497,
      "collections": 498,
      "mat": 499,
      "pa": 500,
      "iz": 501,
      "ity": 502,
      "cor": 503,
      "87": 504,
      "ite": 505,
      "91": 506,
      "gr": 507,
      "ial": 508,
      "93": 509,
      "fa": 510,
      "cc": 511,
      "man": 512,
      "app": 513,
      "des": 514,
      "asp": 515,
      "24": 516,
      "tail": 517,
      "we": 518,
      "17": 519,
      "int": 520,
      "ill": 521,
      "res": 522,
      "io": 523,
      "ure": 524,
      "und": 525,
      "ck": 526,
      "event": 527,
      "ell": 528,
      "ge": 529,
      "av": 530,
      "detail": 531,
      "gu": 532,
      "bl": 533,
      "cat": 534,
      "03": 535,
      "01": 536,
      "96": 537,
      "serv": 538,
      "cre": 539,
      "98": 540,
      "04": 541,
      "je": 542,
      "26": 543,
      "if": 544,
      "23": 545,
      "my": 546,
      "post": 547,
      "05": 548,
      "tech": 549,
      "ign": 550,
      "gro": 551,
      "ble": 552,
      "ive": 553,
      "ore": 554,
      "ish": 555,
      "bout": 556,
      "ue": 557,
      "06": 558,
      "one": 559,
      "da": 560,
      "02": 561,
      "07": 562,
      "ha": 563,
      "ca": 564,
      "med": 565,
      "wr": 566,
      "bu": 567,
      "tra": 568,
      "onl": 569,
      "mark": 570,
      "ot": 571,
      "ens": 572,
      "ery": 573,
      "dr": 574,
      "dis": 575,
      "mon": 576,
      "ea": 577,
      "cr": 578,
      "kz": 579,
      "car": 580,
      "bbs": 581,
      "ong": 582,
      "pla": 583,
      "pan": 584,
      "wo": 585,
      "27": 586,
      "artic": 587,
      "low": 588,
      "ins": 589,
      "09": 590,
      "ith": 591,
      "about": 592,
      "ick": 593,
      "cont": 594,
      "work": 595,
      "ach": 596,
      "ther": 597,
      "str": 598,
      "home": 599,
      "2020": 600,
      "ys": 601,
      "min": 602,
      "search": 603,
      "ug": 604,
      "ide": 605,
      "ans": 606,
      "let": 607,
      "ash": 608,
      "92": 609,
      "form": 610,
      "coun": 611,
      "by": 612,
      "ld": 613,
      "eng": 614,
      "ust": 615,
      "az": 616,
      "sk": 617,
      "amp": 618,
      "wn": 619,
      "08": 620,
      "ath": 621,
      "bi": 622,
      "ann": 623,
      "conta": 624,
      "item": 625,
      "ions": 626,
      "sm": 627,
      "22": 628,
      "ly": 629,
      "gra": 630,
      "ale": 631,
      "enc": 632,
      "89": 633,
      "ss": 634,
      "contact": 635,
      "book": 636,
      "del": 637,
      "ace": 638,
      "36": 639,
      "land": 640,
      "ance": 641,
      "code": 642,
      "table": 643,
      "db": 644,
      "fer": 645,
      "group": 646,
      "hoto": 647,
      "ier": 648,
      "ings": 649,
      "ices": 650,
      "kt": 651,
      "play": 652,
      "ian": 653,
      "cent": 654,
      "ink": 655,
      "su": 656,
      "online": 657,
      "not": 658,
      "ory": 659,
      "hn": 660,
      "19": 661,
      "mer": 662,
      "show": 663,
      "cal": 664,
      "ry": 665,
      "with": 666,
      "ages": 667,
      "ors": 668,
      "fre": 669,
      "our": 670,
      "men": 671,
      "sub": 672,
      "ye": 673,
      "use": 674,
      "2019": 675,
      "ah": 676,
      "ms": 677,
      "mas": 678,
      "ank": 679,
      "forum": 680,
      "inter": 681,
      "ep": 682,
      "gen": 683,
      "web": 684,
      "ary": 685,
      "dat": 686,
      "2021": 687,
      "day": 688,
      "ko": 689,
      "photo": 690,
      "que": 691,
      "gall": 692,
      "sy": 693,
      "fin": 694,
      "type": 695,
      "anc": 696,
      "fil": 697,
      "bar": 698,
      "35": 699,
      "events": 700,
      "vel": 701,
      "part": 702,
      "che": 703,
      "ster": 704,
      "ics": 705,
      "ult": 706,
      "article": 707,
      "auto": 708,
      "urn": 709,
      "ight": 710,
      "ame": 711,
      "34": 712,
      "urs": 713,
      "ud": 714,
      "lic": 715,
      "gre": 716,
      "ny": 717,
      "team": 718,
      "pre": 719,
      "18": 720,
      "30": 721,
      "act": 722,
      "cas": 723,
      "2022": 724,
      "ob": 725,
      "tu": 726,
      "37": 727,
      "ade": 728,
      "vo": 729,
      "mi": 730,
      "aw": 731,
      "mem": 732,
      "top": 733,
      "leg": 734,
      "2018": 735,
      "vide": 736,
      "ject": 737,
      "ire": 738,
      "ien": 739,
      "cf": 740,
      "auth": 741,
      "21": 742,
      "content": 743,
      "45": 744,
      "services": 745,
      "world": 746,
      "na": 747,
      "lio": 748,
      "lig": 749,
      "gallery": 750,
      "iss": 751,
      "bus": 752,
      "food": 753,
      "og": 754,
      "aspx": 755,
      "ds": 756,
      "2017": 757,
      "job": 758,
      "sup": 759,
      "them": 760,
      "ton": 761,
      "press": 762,
      "market": 763,
      "how": 764,
      "ast": 765,
      "design": 766,
      "ital": 767,
      "your": 768,
      "44": 769,
      "ations": 770,
      "pt": 771,
      "ff": 772,
      "net": 773,
      "wer": 774,
      "ement": 775,
      "its": 776,
      "tar": 777,
      "get": 778,
      "--": 779,
      "ek": 780,
      "sol": 781,
      "wp": 782,
      "ica": 783,
      "ler": 784,
      "val": 785,
      "sa": 786,
      "you": 787,
      "comp": 788,
      "ical": 789,
      "west": 790,
      "add": 791,
      "ft": 792,
      "folio": 793,
      "ild": 794,
      "lang": 795,
      "her": 796,
      "flow": 797,
      "vin": 798,
      "ci": 799,
      "login": 800,
      "tan": 801,
      "sw": 802,
      "alth": 803,
      "portfolio": 804,
      "author": 805,
      "ich": 806,
      "file": 807,
      "46": 808,
      "ner": 809,
      "ij": 810,
      "ons": 811,
      "mit": 812,
      "2016": 813,
      "33": 814,
      "pal": 815,
      "55": 816,
      "29": 817,
      "zo": 818,
      "off": 819,
      "vir": 820,
      "project": 821,
      "acc": 822,
      "bro": 823,
      "ven": 824,
      "47": 825,
      "key": 826,
      "por": 827,
      "zh": 828,
      "ool": 829,
      "vis": 830,
      "hr": 831,
      "ps": 832,
      "vent": 833,
      "ze": 834,
      "pi": 835,
      "store": 836,
      "display": 837,
      "cra": 838,
      "fit": 839,
      "2024": 840,
      "28": 841,
      "light": 842,
      "ste": 843,
      "what": 844,
      "bas": 845,
      "can": 846,
      "blogs": 847,
      "sport": 848,
      "als": 849,
      "cam": 850,
      "bre": 851,
      "ise": 852,
      "tim": 853,
      "66": 854,
      "comm": 855,
      "gi": 856,
      "lt": 857,
      "iness": 858,
      "=%": 859,
      "air": 860,
      "word": 861,
      "ives": 862,
      "bal": 863,
      "cop": 864,
      "lu": 865,
      "order": 866,
      "bil": 867,
      "ele": 868,
      "max": 869,
      "care": 870,
      "dire": 871,
      "den": 872,
      "ti": 873,
      "service": 874,
      "udi": 875,
      "77": 876,
      "ino": 877,
      "graph": 878,
      "rom": 879,
      "health": 880,
      "reg": 881,
      "hel": 882,
      "cart": 883,
      "cle": 884,
      "2015": 885,
      "ru": 886,
      "ley": 887,
      "gl": 888,
      "john": 889,
      "50": 890,
      "son": 891,
      "nu": 892,
      "pages": 893,
      "read": 894,
      "56": 895,
      "park": 896,
      "lin": 897,
      "ply": 898,
      "met": 899,
      "mus": 900,
      "ari": 901,
      "ya": 902,
      "box": 903,
      "mode": 904,
      "business": 905,
      "dy": 906,
      "don": 907,
      "ger": 908,
      "pap": 909,
      "acy": 910,
      "best": 911,
      "led": 912,
      "ina": 913,
      "ka": 914,
      "2023": 915,
      "ji": 916,
      "tre": 917,
      "ten": 918,
      "ition": 919,
      "ga": 920,
      "brand": 921,
      "good": 922,
      "ange": 923,
      "class": 924,
      "set": 925,
      "profile": 926,
      "sal": 927,
      "hot": 928,
      "num": 929,
      "out": 930,
      "mag": 931,
      "ency": 932,
      "vil": 933,
      "ng": 934,
      "video": 935,
      "chen": 936,
      "direct": 937,
      "57": 938,
      "cd": 939,
      "arm": 940,
      "idx": 941,
      "ben": 942,
      "wat": 943,
      "flor": 944,
      "compan": 945,
      "eck": 946,
      "creat": 947,
      "wood": 948,
      "40": 949,
      "gol": 950,
      "pet": 951,
      "ja": 952,
      "win": 953,
      "club": 954,
      "date": 955,
      "bur": 956,
      "now": 957,
      "comment": 958,
      "mes": 959,
      "free": 960,
      "school": 961,
      "cho": 962,
      "ail": 963,
      "hy": 964,
      "foto": 965,
      "gy": 966,
      "eld": 967,
      "bet": 968,
      "0000": 969,
      "31": 970,
      "kon": 971,
      "law": 972,
      "fu": 973,
      "2014": 974,
      "ni": 975,
      "hu": 976,
      "review": 977,
      "aut": 978,
      "ere": 979,
      "media": 980,
      "cs": 981,
      "count": 982,
      "ents": 983,
      "edu": 984,
      "nor": 985,
      "bel": 986,
      "house": 987,
      "vid": 988,
      "priv": 989,
      "rol": 990,
      "ric": 991,
      "xt": 992,
      "commun": 993,
      "43": 994,
      "utm": 995,
      "cu": 996,
      "mot": 997,
      "ont": 998,
      "acade": 999,
      "fle": 1000,
      "cy": 1001,
      "action": 1002,
      "att": 1003,
      "from": 1004,
      "mart": 1005,
      "hol": 1006,
      "site": 1007,
      "black": 1008,
      "vers": 1009,
      "sid": 1010,
      "nat": 1011,
      "nov": 1012,
      "67": 1013,
      "flo": 1014,
      "start": 1015,
      "ily": 1016,
      "pack": 1017,
      "sort": 1018,
      "cur": 1019,
      "cour": 1020,
      "ball": 1021,
      "tt": 1022,
      "si": 1023,
      "ford": 1024,
      "za": 1025,
      "ique": 1026,
      "rist": 1027,
      "2013": 1028,
      "igh": 1029,
      "tax": 1030,
      "har": 1031,
      "ness": 1032,
      "ana": 1033,
      "fly": 1034,
      "able": 1035,
      "dig": 1036,
      "details": 1037,
      "life": 1038,
      "ero": 1039,
      "company": 1040,
      "ctor": 1041,
      "fir": 1042,
      "cp": 1043,
      "main": 1044,
      "room": 1045,
      "proper": 1046,
      "cm": 1047,
      "ki": 1048,
      "atta": 1049,
      "yl": 1050,
      "center": 1051,
      "pub": 1052,
      "clo": 1053,
      "back": 1054,
      "100": 1055,
      "ham": 1056,
      "ual": 1057,
      "gal": 1058,
      "studi": 1059,
      "ain": 1060,
      "opt": 1061,
      "pat": 1062,
      "ret": 1063,
      "cap": 1064,
      "pers": 1065,
      "test": 1066,
      "gam": 1067,
      "hi": 1068,
      "ence": 1069,
      "cer": 1070,
      "sur": 1071,
      "65": 1072,
      "32": 1073,
      "hand": 1074,
      "fam": 1075,
      "way": 1076,
      "down": 1077,
      "catal": 1078,
      "archives": 1079,
      "mu": 1080,
      "vet": 1081,
      "alt": 1082,
      "tem": 1083,
      "academy": 1084,
      "oz": 1085,
      "ls": 1086,
      "els": 1087,
      "ker": 1088,
      "ungen": 1089,
      "arn": 1090,
      "bor": 1091,
      "ures": 1092,
      "attach": 1093,
      "ces": 1094,
      "link": 1095,
      "75": 1096,
      "lit": 1097,
      "access": 1098,
      "cons": 1099,
      "san": 1100,
      "ein": 1101,
      "zy": 1102,
      "open": 1103,
      "wx": 1104,
      "attachment": 1105,
      "fol": 1106,
      "stem": 1107,
      "sty": 1108,
      "ars": 1109,
      "ux": 1110,
      "2012": 1111,
      "ark": 1112,
      "df": 1113,
      "va": 1114,
      "cial": 1115,
      "tat": 1116,
      "ju": 1117,
      "cust": 1118,
      "ern": 1119,
      "pra": 1120,
      "data": 1121,
      "polic": 1122,
      "60": 1123,
      "city": 1124,
      "aus": 1125,
      "42": 1126,
      "pos": 1127,
      "gram": 1128,
      "ano": 1129,
      "bs": 1130,
      "real": 1131,
      "cro": 1132,
      "kit": 1133,
      "ase": 1134,
      "green": 1135,
      "vill": 1136,
      "who": 1137,
      "ado": 1138,
      "cation": 1139,
      "reply": 1140,
      "graphy": 1141,
      "agency": 1142,
      "inst": 1143,
      "sof": 1144,
      "ates": 1145,
      "ites": 1146,
      "pres": 1147,
      "len": 1148,
      "def": 1149,
      "load": 1150,
      "marketing": 1151,
      "bau": 1152,
      "tour": 1153,
      "ets": 1154,
      "ips": 1155,
      "velo": 1156,
      "ws": 1157,
      "custom": 1158,
      "vol": 1159,
      "member": 1160,
      "ories": 1161,
      "ines": 1162,
      "menu": 1163,
      "ful": 1164,
      "dan": 1165,
      "fun": 1166,
      "white": 1167,
      "guide": 1168,
      "wa": 1169,
      "tri": 1170,
      "cn": 1171,
      "faq": 1172,
      "card": 1173,
      "sn": 1174,
      "fort": 1175,
      "ining": 1176,
      "sess": 1177,
      "eu": 1178,
      "wal": 1179,
      "spe": 1180,
      "ental": 1181,
      "ator": 1182,
      "stri": 1183,
      "cus": 1184,
      "76": 1185,
      "ute": 1186,
      "ind": 1187,
      "cher": 1188,
      "pg": 1189,
      "han": 1190,
      "dit": 1191,
      "bab": 1192,
      "ban": 1193,
      "jobs": 1194,
      "very": 1195,
      "url": 1196,
      "notice": 1197,
      "54": 1198,
      "less": 1199,
      "print": 1200,
      "ix": 1201,
      "ren": 1202,
      "ific": 1203,
      "bon": 1204,
      "mal": 1205,
      "spec": 1206,
      "copy": 1207,
      "vest": 1208,
      "mm": 1209,
      "foot": 1210,
      "sto": 1211,
      "glo": 1212,
      "zz": 1213,
      "cli": 1214,
      "ium": 1215,
      "non": 1216,
      "doc": 1217,
      "articles": 1218,
      "ges": 1219,
      "cht": 1220,
      "gif": 1221,
      "lot": 1222,
      "king": 1223,
      "sel": 1224,
      "ling": 1225,
      "formation": 1226,
      "__": 1227,
      "inc": 1228,
      "ile": 1229,
      "policy": 1230,
      "char": 1231,
      "may": 1232,
      "fon": 1233,
      "community": 1234,
      "ada": 1235,
      "64": 1236,
      "privacy": 1237,
      "sing": 1238,
      "ring": 1239,
      "53": 1240,
      "pen": 1241,
      "mass": 1242,
      "ao": 1243,
      "sec": 1244,
      "hop": 1245,
      "sen": 1246,
      "2011": 1247,
      "categories": 1248,
      "ama": 1249,
      "ids": 1250,
      "thel": 1251,
      "head": 1252,
      "ml": 1253,
      "plan": 1254,
      "iy": 1255,
      "fest": 1256,
      "bra": 1257,
      "bag": 1258,
      "replyto": 1259,
      "manag": 1260,
      "logy": 1261,
      "but": 1262,
      "nut": 1263,
      "ats": 1264,
      "bers": 1265,
      "ple": 1266,
      "hs": 1267,
      "aj": 1268,
      "filter": 1269,
      "replytocom": 1270,
      "ns": 1271,
      "ken": 1272,
      "sale": 1273,
      "master": 1274,
      "case": 1275,
      "program": 1276,
      "eral": 1277,
      "field": 1278,
      "desc": 1279,
      "christ": 1280,
      "ding": 1281,
      "catalog": 1282,
      "fish": 1283,
      "wom": 1284,
      "ants": 1285,
      "calend": 1286,
      "tw": 1287,
      "sour": 1288,
      "cast": 1289,
      "tal": 1290,
      "ias": 1291,
      "ney": 1292,
      "lar": 1293,
      "auf": 1294,
      "high": 1295,
      "ments": 1296,
      "year": 1297,
      "mid": 1298,
      "red": 1299,
      "38": 1300,
      "39": 1301,
      "ves": 1302,
      "support": 1303,
      "&_": 1304,
      "music": 1305,
      "gs": 1306,
      "tas": 1307,
      "lect": 1308,
      "mp": 1309,
      "gar": 1310,
      "help": 1311,
      "jon": 1312,
      "ks": 1313,
      "ky": 1314,
      "bed": 1315,
      "chi": 1316,
      "pag": 1317,
      "van": 1318,
      "lock": 1319,
      "goods": 1320,
      "digital": 1321,
      "sil": 1322,
      "ku": 1323,
      "nam": 1324,
      "los": 1325,
      "tit": 1326,
      "zx": 1327,
      "ety": 1328,
      "flowers": 1329,
      "lan": 1330,
      "arr": 1331,
      "tags": 1332,
      "41": 1333,
      "indu": 1334,
      "image": 1335,
      "lat": 1336,
      "ting": 1337,
      "gir": 1338,
      "name": 1339,
      "uth": 1340,
      "hist": 1341,
      "tx": 1342,
      "hal": 1343,
      "indi": 1344,
      "ational": 1345,
      "ita": 1346,
      "color": 1347,
      "well": 1348,
      "sr": 1349,
      "account": 1350,
      "beaut": 1351,
      "gard": 1352,
      "zu": 1353,
      "refer": 1354,
      "mod": 1355,
      "ron": 1356,
      "sex": 1357,
      "jew": 1358,
      "techno": 1359,
      "utions": 1360,
      "cos": 1361,
      "try": 1362,
      "rad": 1363,
      "cq": 1364,
      "ault": 1365,
      "jk": 1366,
      "pp": 1367,
      "haus": 1368,
      "star": 1369,
      "acion": 1370,
      "tam": 1371,
      "hor": 1372,
      "urch": 1373,
      "system": 1374,
      "ime": 1375,
      "calendar": 1376,
      "fd": 1377,
      "ox": 1378,
      "48": 1379,
      "therap": 1380,
      "shir": 1381,
      "bir": 1382,
      "resour": 1383,
      "52": 1384,
      "then": 1385,
      "ities": 1386,
      "special": 1387,
      "wil": 1388,
      "zen": 1389,
      "model": 1390,
      "70": 1391,
      "63": 1392,
      "ving": 1393,
      "wy": 1394,
      "las": 1395,
      "49": 1396,
      "alb": 1397,
      "prote": 1398,
      "person": 1399,
      "hotel": 1400,
      "plus": 1401,
      "tc": 1402,
      "month": 1403,
      "kar": 1404,
      "mc": 1405,
      "cot": 1406,
      "property": 1407,
      "2010": 1408,
      "admin": 1409,
      "email": 1410,
      "sl": 1411,
      "ii": 1412,
      "sum": 1413,
      "xx": 1414,
      "ship": 1415,
      "stre": 1416,
      "jin": 1417,
      "fc": 1418,
      "line": 1419,
      "dc": 1420,
      "pass": 1421,
      "die": 1422,
      "joy": 1423,
      "stand": 1424,
      "cours": 1425,
      "travel": 1426,
      "era": 1427,
      "bio": 1428,
      "wel": 1429,
      "war": 1430,
      "cgi": 1431,
      "bad": 1432,
      "studio": 1433,
      "cook": 1434,
      "ener": 1435,
      "stud": 1436,
      "ior": 1437,
      "download": 1438,
      "stru": 1439,
      "uch": 1440,
      "pac": 1441,
      "51": 1442,
      "power": 1443,
      "ov": 1444,
      "fact": 1445,
      "kin": 1446,
      "ona": 1447,
      "consult": 1448,
      "coup": 1449,
      "photography": 1450,
      "archive": 1451,
      "trans": 1452,
      "homes": 1453,
      "live": 1454,
      "apo": 1455,
      "ivers": 1456,
      "wed": 1457,
      "burg": 1458,
      "exper": 1459,
      "ating": 1460,
      "water": 1461,
      "ize": 1462,
      "dd": 1463,
      "ient": 1464,
      "jj": 1465,
      "soci": 1466,
      "sign": 1467,
      "mil": 1468,
      "sim": 1469,
      "pc": 1470,
      "000": 1471,
      "pot": 1472,
      "family": 1473,
      "produkt": 1474,
      "source": 1475,
      "ll": 1476,
      "jn": 1477,
      "bh": 1478,
      "user": 1479,
      "74": 1480,
      "band": 1481,
      "fri": 1482,
      "public": 1483,
      "ura": 1484,
      "icht": 1485,
      "73": 1486,
      "quest": 1487,
      "une": 1488,
      "time": 1489,
      "flower": 1490,
      "mary": 1491,
      "fm": 1492,
      "regist": 1493,
      "62": 1494,
      "books": 1495,
      "paint": 1496,
      "love": 1497,
      "bot": 1498,
      "72": 1499,
      "compon": 1500,
      "ners": 1501,
      "amer": 1502,
      "ized": 1503,
      "ros": 1504,
      "organ": 1505,
      "vs": 1506,
      "ches": 1507,
      "eco": 1508,
      "vod": 1509,
      "bai": 1510,
      "redirect": 1511,
      "cha": 1512,
      "ument": 1513,
      "paper": 1514,
      "core": 1515,
      "ini": 1516,
      "pid": 1517,
      "default": 1518,
      "ris": 1519,
      "berg": 1520,
      "sports": 1521,
      "bile": 1522,
      "ou": 1523,
      "buy": 1524,
      "jm": 1525,
      "kte": 1526,
      "game": 1527,
      "legal": 1528,
      "saf": 1529,
      "konta": 1530,
      "lex": 1531,
      "mel": 1532,
      "week": 1533,
      "lish": 1534,
      "uid": 1535,
      "tool": 1536,
      "build": 1537,
      "style": 1538,
      "wi": 1539,
      "ush": 1540,
      "gb": 1541,
      "emp": 1542,
      "ane": 1543,
      "ather": 1544,
      "bat": 1545,
      "national": 1546,
      "wild": 1547,
      "letter": 1548,
      "sun": 1549,
      "zer": 1550,
      "information": 1551,
      "learn": 1552,
      "estate": 1553,
      "feat": 1554,
      "tv": 1555,
      "why": 1556,
      "anal": 1557,
      "virtu": 1558,
      "ese": 1559,
      "blue": 1560,
      "over": 1561,
      "gg": 1562,
      "gold": 1563,
      "59": 1564,
      "social": 1565,
      "fore": 1566,
      "oc": 1567,
      "cover": 1568,
      "js": 1569,
      "activ": 1570,
      "oy": 1571,
      "tips": 1572,
      "training": 1573,
      "bes": 1574,
      "erie": 1575,
      "tec": 1576,
      "whit": 1577,
      "bay": 1578,
      "elle": 1579,
      "elect": 1580,
      "ded": 1581,
      "ico": 1582,
      "church": 1583,
      "works": 1584,
      "kat": 1585,
      "ule": 1586,
      "ram": 1587,
      "body": 1588,
      "meet": 1589,
      "ake": 1590,
      "beauty": 1591,
      "jor": 1592,
      "country": 1593,
      "para": 1594,
      "camp": 1595,
      "mobil": 1596,
      "mor": 1597,
      "big": 1598,
      "clean": 1599,
      "projects": 1600,
      "ow": 1601,
      "dung": 1602,
      "aya": 1603,
      "agen": 1604,
      "ters": 1605,
      "baby": 1606,
      "58": 1607,
      "journ": 1608,
      "vie": 1609,
      "bit": 1610,
      "kontakt": 1611,
      "ural": 1612,
      "asc": 1613,
      "component": 1614,
      "mobile": 1615,
      "69": 1616,
      "nd": 1617,
      "mach": 1618,
      "equ": 1619,
      "61": 1620,
      "mic": 1621,
      "sta": 1622,
      "iki": 1623,
      "eber": 1624,
      "teach": 1625,
      "ee": 1626,
      "aktu": 1627,
      "jim": 1628,
      "price": 1629,
      "brid": 1630,
      "hair": 1631,
      "hip": 1632,
      "course": 1633,
      "iday": 1634,
      "stor": 1635,
      "sf": 1636,
      "invest": 1637,
      "rica": 1638,
      "single": 1639,
      "pop": 1640,
      "insur": 1641,
      "control": 1642,
      "ket": 1643,
      "kom": 1644,
      "ping": 1645,
      "dress": 1646,
      "found": 1647,
      "bul": 1648,
      "map": 1649,
      "lon": 1650,
      "develo": 1651,
      "tur": 1652,
      "110": 1653,
      "ience": 1654,
      "thing": 1655,
      "wes": 1656,
      "ax": 1657,
      "like": 1658,
      "pod": 1659,
      "album": 1660,
      "make": 1661,
      "200": 1662,
      "door": 1663,
      "aux": 1664,
      "writ": 1665,
      "videos": 1666,
      "sam": 1667,
      "vor": 1668,
      "ials": 1669,
      "members": 1670,
      "71": 1671,
      "she": 1672,
      "first": 1673,
      "rent": 1674,
      "management": 1675,
      "iver": 1676,
      "lab": 1677,
      "sem": 1678,
      "68": 1679,
      "jam": 1680,
      "enter": 1681,
      "pin": 1682,
      "tho": 1683,
      "79": 1684,
      "yer": 1685,
      "_%": 1686,
      "arts": 1687,
      "accessories": 1688,
      "oo": 1689,
      "uck": 1690,
      "gem": 1691,
      "ond": 1692,
      "ques": 1693,
      "more": 1694,
      "vint": 1695,
      "usa": 1696,
      "report": 1697,
      "iel": 1698,
      "resources": 1699,
      "ara": 1700,
      "bm": 1701,
      "return": 1702,
      "ffe": 1703,
      "gin": 1704,
      "audi": 1705,
      "craft": 1706,
      "focus": 1707,
      "journal": 1708,
      "adv": 1709,
      "wall": 1710,
      "anim": 1711,
      "ones": 1712,
      "lead": 1713,
      "liber": 1714,
      "option": 1715,
      "just": 1716,
      "ular": 1717,
      "story": 1718,
      "prof": 1719,
      "happ": 1720,
      "oper": 1721,
      "garden": 1722,
      "photos": 1723,
      "ards": 1724,
      "dre": 1725,
      "fox": 1726,
      "tes": 1727,
      "gel": 1728,
      "bank": 1729,
      "stra": 1730,
      "rid": 1731,
      "cel": 1732,
      "imon": 1733,
      "pay": 1734,
      "nonce": 1735,
      "yu": 1736,
      "artist": 1737,
      "esh": 1738,
      "asy": 1739,
      "xn": 1740,
      "coach": 1741,
      "dev": 1742,
      "edit": 1743,
      "whe": 1744,
      "insurance": 1745,
      "solutions": 1746,
      "bg": 1747,
      "oney": 1748,
      "creative": 1749,
      "=/": 1750,
      "rec": 1751,
      "commer": 1752,
      "fitness": 1753,
      "taur": 1754,
      "games": 1755,
      "own": 1756,
      "africa": 1757,
      "78": 1758,
      "lam": 1759,
      "fac": 1760,
      "2009": 1761,
      "fn": 1762,
      "title": 1763,
      "tain": 1764,
      "unt": 1765,
      "kids": 1766,
      "miss": 1767,
      "pair": 1768,
      "pu": 1769,
      "shar": 1770,
      "gift": 1771,
      "paris": 1772,
      "ene": 1773,
      "tang": 1774,
      "fuer": 1775,
      "stat": 1776,
      "fire": 1777,
      "vert": 1778,
      "oak": 1779,
      "vintage": 1780,
      "floor": 1781,
      "uit": 1782,
      "shirt": 1783,
      "pak": 1784,
      "nik": 1785,
      "cosm": 1786,
      "ional": 1787,
      "itemid": 1788,
      "impress": 1789,
      "ival": 1790,
      "ident": 1791,
      "img": 1792,
      "conne": 1793,
      "tb": 1794,
      "old": 1795,
      "ctions": 1796,
      "area": 1797,
      "hab": 1798,
      "wu": 1799,
      "kate": 1800,
      "ville": 1801,
      "under": 1802,
      "victor": 1803,
      "dam": 1804,
      "farm": 1805,
      "paign": 1806,
      "courses": 1807,
      "north": 1808,
      "hum": 1809,
      "history": 1810,
      "cb": 1811,
      "tm": 1812,
      "far": 1813,
      "value": 1814,
      "super": 1815,
      "ib": 1816,
      "ury": 1817,
      "kan": 1818,
      "road": 1819,
      "uncategor": 1820,
      "clin": 1821,
      "td": 1822,
      "cid": 1823,
      "jack": 1824,
      "ater": 1825,
      "items": 1826,
      "jl": 1827,
      "spir": 1828,
      "know": 1829,
      "ends": 1830,
      "sell": 1831,
      "nes": 1832,
      "gov": 1833,
      "tap": 1834,
      "ette": 1835,
      "fahr": 1836,
      "dog": 1837,
      "ida": 1838,
      "tro": 1839,
      "seo": 1840,
      "campaign": 1841,
      "acht": 1842,
      "lets": 1843,
      "ral": 1844,
      "level": 1845,
      "fs": 1846,
      "long": 1847,
      "pract": 1848,
      "ear": 1849,
      "div": 1850,
      "side": 1851,
      "boo": 1852,
      "itu": 1853,
      "ref": 1854,
      "2025": 1855,
      "ution": 1856,
      "anti": 1857,
      "document": 1858,
      "plat": 1859,
      "write": 1860,
      "hd": 1861,
      "viet": 1862,
      "fli": 1863,
      "enda": 1864,
      "prim": 1865,
      "ete": 1866,
      "schut": 1867,
      "magaz": 1868,
      "hat": 1869,
      "medium": 1870,
      "ester": 1871,
      "aff": 1872,
      "hill": 1873,
      "vip": 1874,
      "ey": 1875,
      "zi": 1876,
      "point": 1877,
      "has": 1878,
      "south": 1879,
      "oce": 1880,
      "foo": 1881,
      "ugh": 1882,
      "tor": 1883,
      "villa": 1884,
      "md": 1885,
      "select": 1886,
      "lad": 1887,
      "face": 1888,
      "cla": 1889,
      "boutique": 1890,
      "wpnonce": 1891,
      "kor": 1892,
      "120": 1893,
      "come": 1894,
      "listing": 1895,
      "atel": 1896,
      "cab": 1897,
      "ning": 1898,
      "cost": 1899,
      "series": 1900,
      "iten": 1901,
      "nis": 1902,
      "global": 1903,
      "ider": 1904,
      "mater": 1905,
      "euro": 1906,
      "jose": 1907,
      "beach": 1908,
      "location": 1909,
      "uss": 1910,
      "ties": 1911,
      "ici": 1912,
      "full": 1913,
      "tle": 1914,
      "fect": 1915,
      "host": 1916,
      "101": 1917,
      "gm": 1918,
      "martin": 1919,
      "wd": 1920,
      "nt": 1921,
      "ashion": 1922,
      "local": 1923,
      "casino": 1924,
      "virtual": 1925,
      "vy": 1926,
      "find": 1927,
      "ades": 1928,
      "general": 1929,
      "aro": 1930,
      "personal": 1931,
      "kn": 1932,
      "jun": 1933,
      "kes": 1934,
      "fab": 1935,
      "terms": 1936,
      "bin": 1937,
      "covid": 1938,
      "jan": 1939,
      "dra": 1940,
      "hl": 1941,
      "din": 1942,
      "angel": 1943,
      "ori": 1944,
      "langu": 1945,
      "xi": 1946,
      "sco": 1947,
      "mann": 1948,
      "nur": 1949,
      "stock": 1950,
      "rat": 1951,
      "ights": 1952,
      "gas": 1953,
      "ils": 1954,
      "ering": 1955,
      "blo": 1956,
      "hub": 1957,
      "fra": 1958,
      "number": 1959,
      "coffe": 1960,
      "women": 1961,
      "uncategorized": 1962,
      "ador": 1963,
      "office": 1964,
      "iture": 1965,
      "wedding": 1966,
      "jour": 1967,
      "wear": 1968,
      "football": 1969,
      "vari": 1970,
      "deli": 1971,
      "topic": 1972,
      "pes": 1973,
      "fb": 1974,
      "iso": 1975,
      "run": 1976,
      "centre": 1977,
      "modu": 1978,
      "dor": 1979,
      "pour": 1980,
      "lag": 1981,
      "smart": 1982,
      "state": 1983,
      "eg": 1984,
      "only": 1985,
      "chil": 1986,
      "jh": 1987,
      "thes": 1988,
      "mall": 1989,
      "ason": 1990,
      "elles": 1991,
      "wen": 1992,
      "fut": 1993,
      "ults": 1994,
      "financ": 1995,
      "dro": 1996,
      "afe": 1997,
      "kal": 1998,
      "pad": 1999,
      "phone": 2000,
      "cult": 2001,
      "dem": 2002,
      "neu": 2003,
      "ato": 2004,
      "fid": 2005,
      "mult": 2006,
      "pol": 2007,
      "via": 2008,
      "ople": 2009,
      "ility": 2010,
      "stell": 2011,
      "chat": 2012,
      "christmas": 2013,
      "trade": 2014,
      "producto": 2015,
      "kategor": 2016,
      "develop": 2017,
      "space": 2018,
      "fair": 2019,
      "yto": 2020,
      "session": 2021,
      "education": 2022,
      "vit": 2023,
      "corpor": 2024,
      "hous": 2025,
      "ews": 2026,
      "furn": 2027,
      "ert": 2028,
      "erv": 2029,
      "archite": 2030,
      "2525": 2031,
      "uns": 2032,
      "engine": 2033,
      "protection": 2034,
      "medical": 2035,
      "golf": 2036,
      "posts": 2037,
      "wish": 2038,
      "nen": 2039,
      "107": 2040,
      "arbe": 2041,
      "ison": 2042,
      "produit": 2043,
      "cil": 2044,
      "1000": 2045,
      "fel": 2046,
      "demo": 2047,
      "true": 2048,
      "libr": 2049,
      "vac": 2050,
      "onlin": 2051,
      "500": 2052,
      "tran": 2053,
      "motor": 2054,
      "term": 2055,
      "tab": 2056,
      "hard": 2057,
      "xin": 2058,
      "dental": 2059,
      "impressum": 2060,
      "aqu": 2061,
      "cand": 2062,
      "hen": 2063,
      "eve": 2064,
      "aid": 2065,
      "results": 2066,
      "tex": 2067,
      "skin": 2068,
      "sin": 2069,
      "swe": 2070,
      "ration": 2071,
      "bran": 2072,
      "aire": 2073,
      "unter": 2074,
      "four": 2075,
      "wf": 2076,
      "nr": 2077,
      "ille": 2078,
      "sand": 2079,
      "mac": 2080,
      "hon": 2081,
      "py": 2082,
      "decor": 2083,
      "fix": 2084,
      "jer": 2085,
      "inal": 2086,
      "rock": 2087,
      "199": 2088,
      "fashion": 2089,
      "wl": 2090,
      "that": 2091,
      "constru": 2092,
      "wid": 2093,
      "forest": 2094,
      "jewel": 2095,
      "pri": 2096,
      "glass": 2097,
      "mini": 2098,
      "loc": 2099,
      "pand": 2100,
      "tayl": 2101,
      "ved": 2102,
      "holiday": 2103,
      "catid": 2104,
      "ape": 2105,
      "step": 2106,
      "andre": 2107,
      "ated": 2108,
      "mb": 2109,
      "this": 2110,
      "ena": 2111,
      "mad": 2112,
      "people": 2113,
      "film": 2114,
      "forex": 2115,
      "language": 2116,
      "follow": 2117,
      "+%": 2118,
      "town": 2119,
      "mail": 2120,
      "kur": 2121,
      "ume": 2122,
      "short": 2123,
      "fund": 2124,
      "2008": 2125,
      "eder": 2126,
      "ami": 2127,
      "uc": 2128,
      "urity": 2129,
      "tea": 2130,
      "123": 2131,
      "hom": 2132,
      "flag": 2133,
      "restaur": 2134,
      "look": 2135,
      "sle": 2136,
      "ijt": 2137,
      "was": 2138,
      "any": 2139,
      "international": 2140,
      "route": 2141,
      "stone": 2142,
      "properties": 2143,
      "partners": 2144,
      "ped": 2145,
      "von": 2146,
      "ism": 2147,
      "gn": 2148,
      "quet": 2149,
      "dec": 2150,
      "path": 2151,
      "showcomment": 2152,
      "testimon": 2153,
      "sales": 2154,
      "place": 2155,
      "jet": 2156,
      "section": 2157,
      "shi": 2158,
      "feature": 2159,
      "living": 2160,
      "tools": 2161,
      "keyword": 2162,
      "change": 2163,
      "intro": 2164,
      "ungs": 2165,
      "made": 2166,
      "mill": 2167,
      "happy": 2168,
      "chan": 2169,
      "kl": 2170,
      "jpg": 2171,
      "cture": 2172,
      "fall": 2173,
      "300": 2174,
      "trad": 2175,
      "kh": 2176,
      "daten": 2177,
      "sessid": 2178,
      "fal": 2179,
      "pur": 2180,
      "fla": 2181,
      "isch": 2182,
      "pli": 2183,
      "tee": 2184,
      "asi": 2185,
      "reviews": 2186,
      "sd": 2187,
      "iner": 2188,
      "parts": 2189,
      "village": 2190,
      "need": 2191,
      "dubai": 2192,
      "watch": 2193,
      "foundation": 2194,
      "bri": 2195,
      "cosmet": 2196,
      "plic": 2197,
      "lux": 2198,
      "coffee": 2199,
      "plac": 2200,
      "website": 2201,
      "fen": 2202,
      "girl": 2203,
      "small": 2204,
      "kitchen": 2205,
      "manu": 2206,
      "bak": 2207,
      "ani": 2208,
      "ams": 2209,
      "polit": 2210,
      "join": 2211,
      "kore": 2212,
      "leist": 2213,
      "dom": 2214,
      "county": 2215,
      "akt": 2216,
      "phpsessid": 2217,
      "scre": 2218,
      "leon": 2219,
      "shops": 2220,
      "eno": 2221,
      "schutz": 2222,
      "therapy": 2223,
      "jap": 2224,
      "sv": 2225,
      "festival": 2226,
      "uz": 2227,
      "ston": 2228,
      "das": 2229,
      "ata": 2230,
      "strate": 2231,
      "will": 2232,
      "tel": 2233,
      "rese": 2234,
      "customer": 2235,
      "uld": 2236,
      "learning": 2237,
      "party": 2238,
      "iter": 2239,
      "plate": 2240,
      "ork": 2241,
      "cond": 2242,
      "ueber": 2243,
      "wick": 2244,
      "una": 2245,
      "network": 2246,
      "pas": 2247,
      "103": 2248,
      "produkte": 2249,
      "ally": 2250,
      "fj": 2251,
      "pd": 2252,
      "ali": 2253,
      "104": 2254,
      "jia": 2255,
      "gener": 2256,
      "grand": 2257,
      "scri": 2258,
      "repair": 2259,
      "front": 2260,
      "vision": 2261,
      "fast": 2262,
      "ray": 2263,
      "rum": 2264,
      "ware": 2265,
      "ged": 2266,
      "ua": 2267,
      "uy": 2268,
      "adu": 2269,
      "parad": 2270,
      "gan": 2271,
      "entre": 2272,
      "wxs": 2273,
      "001": 2274,
      "ika": 2275,
      "wz": 2276,
      "wiki": 2277,
      "sod": 2278,
      "creativ": 2279,
      "apart": 2280,
      "benef": 2281,
      "mt": 2282,
      "pil": 2283,
      "soft": 2284,
      "profess": 2285,
      "ione": 2286,
      "105": 2287,
      "ito": 2288,
      "ward": 2289,
      "technology": 2290,
      "ran": 2291,
      "notic": 2292,
      "too": 2293,
      "ontzo": 2294,
      "ides": 2295,
      "cut": 2296,
      "rac": 2297,
      "nos": 2298,
      "see": 2299,
      "sg": 2300,
      "mess": 2301,
      "galerie": 2302,
      "ump": 2303,
      "alo": 2304,
      "dest": 2305,
      "podcast": 2306,
      "ints": 2307,
      "credit": 2308,
      "nl": 2309,
      "optim": 2310,
      "wholes": 2311,
      "ues": 2312,
      "development": 2313,
      "emplo": 2314,
      "mun": 2315,
      "street": 2316,
      "lay": 2317,
      "grow": 2318,
      "cgu": 2319,
      "used": 2320,
      "pool": 2321,
      "chem": 2322,
      "rele": 2323,
      "spring": 2324,
      "fy": 2325,
      "ative": 2326,
      "apothe": 2327,
      "mir": 2328,
      "ales": 2329,
      "dent": 2330,
      "after": 2331,
      "sitem": 2332,
      "/-": 2333,
      "lace": 2334,
      "ago": 2335,
      "yout": 2336,
      "industri": 2337,
      "tai": 2338,
      "mzo": 2339,
      "text": 2340,
      "jp": 2341,
      "ony": 2342,
      "great": 2343,
      "advent": 2344,
      "row": 2345,
      "heart": 2346,
      "sus": 2347,
      "ences": 2348,
      "cir": 2349,
      "mast": 2350,
      "dun": 2351,
      "track": 2352,
      "cool": 2353,
      "aven": 2354,
      "feed": 2355,
      "cham": 2356,
      "proc": 2357,
      "summer": 2358,
      "clinic": 2359,
      "zxl": 2360,
      "unch": 2361,
      "geb": 2362,
      "lee": 2363,
      "mis": 2364,
      "ocean": 2365,
      "orig": 2366,
      "sitemap": 2367,
      "stu": 2368,
      "silver": 2369,
      "taylor": 2370,
      "jkx": 2371,
      "night": 2372,
      "last": 2373,
      "106": 2374,
      "cert": 2375,
      "mau": 2376,
      "mg": 2377,
      "portal": 2378,
      "yoij": 2379,
      "ous": 2380,
      "hall": 2381,
      "ati": 2382,
      "furniture": 2383,
      "sop": 2384,
      "colum": 2385,
      "audio": 2386,
      "hood": 2387,
      "252": 2388,
      "check": 2389,
      "hosp": 2390,
      "block": 2391,
      "rzxl": 2392,
      "alex": 2393,
      "orderby": 2394,
      "corn": 2395,
      "mzoiy": 2396,
      "kle": 2397,
      "ente": 2398,
      "flu": 2399,
      "cguio": 2400,
      "cup": 2401,
      "library": 2402,
      "unit": 2403,
      "ican": 2404,
      "amo": 2405,
      "register": 2406,
      "jeyoij": 2407,
      "tin": 2408,
      "logo": 2409,
      "sst": 2410,
      "jeyoijrzxl": 2411,
      "wxsijt": 2412,
      "mzoiywxsijt": 2413,
      "fem": 2414,
      "vig": 2415,
      "forums": 2416,
      "council": 2417,
      "xy": 2418,
      "dav": 2419,
      "ontzojeyoijrzxl": 2420,
      "hit": 2421,
      "construction": 2422,
      "docs": 2423,
      "energy": 2424,
      "ige": 2425,
      "fotogra": 2426,
      "aktuelles": 2427,
      "oil": 2428,
      "massage": 2429,
      "thread": 2430,
      "ires": 2431,
      "fp": 2432,
      "tware": 2433,
      "cry": 2434,
      "ements": 2435,
      "associ": 2436,
      "jsp": 2437,
      "research": 2438,
      "directory": 2439,
      "wordpress": 2440,
      "wis": 2441,
      "brands": 2442,
      "bou": 2443,
      "worth": 2444,
      "consulting": 2445,
      "size": 2446,
      "uer": 2447,
      "slot": 2448,
      "equip": 2449,
      "102": 2450,
      "xcode": 2451,
      "mcode": 2452,
      "ras": 2453,
      "lg": 2454,
      "treat": 2455,
      "nv": 2456,
      "variant": 2457,
      "phil": 2458,
      "apps": 2459,
      "iya": 2460,
      "lie": 2461,
      "150": 2462,
      "create": 2463,
      "rel": 2464,
      "magazine": 2465,
      "aging": 2466,
      "ree": 2467,
      "lor": 2468,
      "thew": 2469,
      "recor": 2470,
      "tid": 2471,
      "format": 2472,
      "english": 2473,
      "rose": 2474,
      "bach": 2475,
      "fishing": 2476,
      "roy": 2477,
      "ways": 2478,
      "bol": 2479,
      "break": 2480,
      "vend": 2481,
      "limit": 2482,
      "forever": 2483,
      "eri": 2484,
      "industr": 2485,
      "sat": 2486,
      "oh": 2487,
      "---": 2488,
      "connect": 2489,
      "building": 2490,
      "lightbox": 2491,
      "jq": 2492,
      "jing": 2493,
      "match": 2494,
      "apr": 2495,
      "wan": 2496,
      "nhs": 2497,
      "wishlist": 2498,
      "cars": 2499,
      "eria": 2500,
      "links": 2501,
      "var": 2502,
      "kre": 2503,
      "london": 2504,
      "call": 2505,
      "grid": 2506,
      "lemon": 2507,
      "neck": 2508,
      "colo": 2509,
      "ious": 2510,
      "math": 2511,
      "chang": 2512,
      "yn": 2513,
      "edes": 2514,
      "&&": 2515,
      "inte": 2516,
      "wit": 2517,
      "parent": 2518,
      "biz": 2519,
      "360": 2520,
      "deal": 2521,
      "ome": 2522,
      "enst": 2523,
      "sey": 2524,
      "nav": 2525,
      "pam": 2526,
      "ander": 2527,
      "ads": 2528,
      "univers": 2529,
      "partner": 2530,
      "pink": 2531,
      "wg": 2532,
      "yle": 2533,
      "ming": 2534,
      "applic": 2535,
      "fan": 2536,
      "urg": 2537,
      "entry": 2538,
      "qual": 2539,
      "mens": 2540,
      "dol": 2541,
      "apotheke": 2542,
      "114": 2543,
      "wet": 2544,
      "idad": 2545,
      "nutr": 2546,
      "winter": 2547,
      "schule": 2548,
      "childr": 2549,
      "study": 2550,
      "machine": 2551,
      "cit": 2552,
      "ora": 2553,
      "125": 2554,
      "legacy": 2555,
      "pul": 2556,
      "pon": 2557,
      "plant": 2558,
      "proje": 2559,
      "muse": 2560,
      "zt": 2561,
      "hic": 2562,
      "rest": 2563,
      "god": 2564,
      "japan": 2565,
      "bang": 2566,
      "jewelry": 2567,
      "sea": 2568,
      "import": 2569,
      "seq": 2570,
      "india": 2571,
      "cul": 2572,
      "stick": 2573,
      "gifts": 2574,
      "occ": 2575,
      "craf": 2576,
      "365": 2577,
      "coupon": 2578,
      "mate": 2579,
      "bell": 2580,
      "mr": 2581,
      "wang": 2582,
      "confer": 2583,
      "password": 2584,
      "cept": 2585,
      "anz": 2586,
      "other": 2587,
      "ender": 2588,
      "financial": 2589,
      "tele": 2590,
      "ament": 2591,
      "som": 2592,
      "bik": 2593,
      "pdf": 2594,
      "flex": 2595,
      "ember": 2596,
      "bmode": 2597,
      "dt": 2598,
      "leistungen": 2599,
      "security": 2600,
      "hc": 2601,
      "stal": 2602,
      "aft": 2603,
      "newsletter": 2604,
      "referer": 2605,
      "2007": 2606,
      "ili": 2607,
      "plann": 2608,
      "commercial": 2609,
      "rub": 2610,
      "bamp": 2611,
      "put": 2612,
      "iti": 2613,
      "ipes": 2614,
      "prod": 2615,
      "bath": 2616,
      "tao": 2617,
      "windo": 2618,
      "ez": 2619,
      "matt": 2620,
      "succ": 2621,
      "lau": 2622,
      "shu": 2623,
      "corner": 2624,
      "cdn": 2625,
      "categoria": 2626,
      "porn": 2627,
      "cell": 2628,
      "apple": 2629,
      "jg": 2630,
      "cloud": 2631,
      "wheel": 2632,
      "diam": 2633,
      "coast": 2634,
      "nw": 2635,
      "actual": 2636,
      "girls": 2637,
      "qi": 2638,
      "when": 2639,
      "cross": 2640,
      "immobil": 2641,
      "nach": 2642,
      "pf": 2643,
      "ober": 2644,
      "pend": 2645,
      "leather": 2646,
      "kk": 2647,
      "yoga": 2648,
      "bt": 2649,
      "agon": 2650,
      "alle": 2651,
      "197": 2652,
      "cin": 2653,
      "whats": 2654,
      "sca": 2655,
      "coaching": 2656,
      "staff": 2657,
      "vehic": 2658,
      "island": 2659,
      "kg": 2660,
      "tpro": 2661,
      "heim": 2662,
      "arten": 2663,
      "process": 2664,
      "180": 2665,
      "anno": 2666,
      "wir": 2667,
      "dot": 2668,
      "there": 2669,
      "eli": 2670,
      "ries": 2671,
      "avi": 2672,
      "inar": 2673,
      "mix": 2674,
      "remo": 2675,
      "sky": 2676,
      "whis": 2677,
      "kir": 2678,
      "kun": 2679,
      "flash": 2680,
      "elli": 2681,
      "enz": 2682,
      "micro": 2683,
      "bis": 2684,
      "207": 2685,
      "mont": 2686,
      "jah": 2687,
      "ece": 2688,
      "wide": 2689,
      "bid": 2690,
      "chap": 2691,
      "agent": 2692,
      "jy": 2693,
      "gun": 2694,
      "boy": 2695,
      "court": 2696,
      "classic": 2697,
      "ische": 2698,
      "hospital": 2699,
      "pacific": 2700,
      "quick": 2701,
      "ances": 2702,
      "chann": 2703,
      "cele": 2704,
      "bn": 2705,
      "software": 2706,
      "days": 2707,
      "oly": 2708,
      "kategorie": 2709,
      "msg": 2710,
      "vern": 2711,
      "stories": 2712,
      "ills": 2713,
      "ense": 2714,
      "bow": 2715,
      "images": 2716,
      "season": 2717,
      "bots": 2718,
      "iving": 2719,
      "safety": 2720,
      "where": 2721,
      "cfm": 2722,
      "mission": 2723,
      "friend": 2724,
      "rich": 2725,
      "contra": 2726,
      "hof": 2727,
      "dar": 2728,
      "basket": 2729,
      "pm": 2730,
      "fig": 2731,
      "ost": 2732,
      "tours": 2733,
      "ditions": 2734,
      "offic": 2735,
      "daily": 2736,
      "distri": 2737,
      "liberty": 2738,
      "update": 2739,
      "/_": 2740,
      "tree": 2741,
      "restaurant": 2742,
      "erg": 2743,
      "aul": 2744,
      "hang": 2745,
      "next": 2746,
      "163": 2747,
      "pact": 2748,
      "meeting": 2749,
      "spr": 2750,
      "sli": 2751,
      "fur": 2752,
      "designs": 2753,
      "utsch": 2754,
      "gue": 2755,
      "theme": 2756,
      "196": 2757,
      "txt": 2758,
      "lub": 2759,
      "ula": 2760,
      "dream": 2761,
      "escor": 2762,
      "hil": 2763,
      "spa": 2764,
      "crim": 2765,
      "client": 2766,
      "latest": 2767,
      "natural": 2768,
      "money": 2769,
      "gh": 2770,
      "shire": 2771,
      "mn": 2772,
      "moder": 2773,
      "kam": 2774,
      "comput": 2775,
      "goog": 2776,
      "wine": 2777,
      "115": 2778,
      "ror": 2779,
      "conditions": 2780,
      "itz": 2781,
      "stad": 2782,
      "industry": 2783,
      "easy": 2784,
      "firm": 2785,
      "squ": 2786,
      "practice": 2787,
      "kw": 2788,
      "parish": 2789,
      "vd": 2790,
      "mance": 2791,
      "appar": 2792,
      "rain": 2793,
      "champ": 2794,
      "ises": 2795,
      "base": 2796,
      "metal": 2797,
      "success": 2798,
      "hun": 2799,
      "culture": 2800,
      "things": 2801,
      "swiss": 2802,
      "tos": 2803,
      "cms": 2804,
      "basic": 2805,
      "palm": 2806,
      "jian": 2807,
      "kaz": 2808,
      "250": 2809,
      "ose": 2810,
      "right": 2811,
      "400": 2812,
      "chall": 2813,
      "target": 2814,
      "werk": 2815,
      "crazy": 2816,
      "cleaning": 2817,
      "vic": 2818,
      "child": 2819,
      "rot": 2820,
      "eries": 2821,
      "node": 2822,
      "lya": 2823,
      "rd": 2824,
      "equipment": 2825,
      "western": 2826,
      "iger": 2827,
      "xl": 2828,
      "ext": 2829,
      "itch": 2830,
      "innov": 2831,
      "fis": 2832,
      "flat": 2833,
      "psy": 2834,
      "journey": 2835,
      "ample": 2836,
      "corporate": 2837,
      "manufact": 2838,
      "imo": 2839,
      "schwe": 2840,
      "note": 2841,
      "even": 2842,
      "ala": 2843,
      "have": 2844,
      "pic": 2845,
      "116": 2846,
      "ifi": 2847,
      "eds": 2848,
      "destin": 2849,
      "117": 2850,
      "ask": 2851,
      "pain": 2852,
      "recr": 2853,
      "ech": 2854,
      "writing": 2855,
      "plast": 2856,
      "science": 2857,
      "featured": 2858,
      "aries": 2859,
      "hp": 2860,
      "every": 2861,
      "college": 2862,
      "words": 2863,
      "iment": 2864,
      "steel": 2865,
      "vict": 2866,
      "ideas": 2867,
      "valley": 2868,
      "viaj": 2869,
      "apt": 2870,
      "gur": 2871,
      "112": 2872,
      "bote": 2873,
      "artik": 2874,
      "mind": 2875,
      "nc": 2876,
      "medi": 2877,
      "birth": 2878,
      "chin": 2879,
      "speak": 2880,
      "schedu": 2881,
      "gran": 2882,
      "aero": 2883,
      "cri": 2884,
      "tay": 2885,
      "past": 2886,
      "future": 2887,
      "google": 2888,
      "cards": 2889,
      "archiv": 2890,
      "quo": 2891,
      "offer": 2892,
      "slo": 2893,
      "tern": 2894,
      "hello": 2895,
      "ante": 2896,
      "careers": 2897,
      "thod": 2898,
      "eti": 2899,
      "joseph": 2900,
      "amaz": 2901,
      "ltd": 2902,
      "190": 2903,
      "hire": 2904,
      "radio": 2905,
      "qa": 2906,
      "ground": 2907,
      "uan": 2908,
      "wash": 2909,
      "onom": 2910,
      "cafe": 2911,
      "install": 2912,
      "zs": 2913,
      "195": 2914,
      "movie": 2915,
      "expl": 2916,
      "ays": 2917,
      "dal": 2918,
      "noticias": 2919,
      "ebe": 2920,
      "cks": 2921,
      "china": 2922,
      "lap": 2923,
      "zone": 2924,
      "working": 2925,
      "techn": 2926,
      "chair": 2927,
      "orial": 2928,
      "buch": 2929,
      "files": 2930,
      "stop": 2931,
      "desk": 2932,
      "frame": 2933,
      "ging": 2934,
      "trust": 2935,
      "delivery": 2936,
      "material": 2937,
      "agenda": 2938,
      "obj": 2939,
      "truck": 2940,
      "sav": 2941,
      "alph": 2942,
      "primary": 2943,
      "atelier": 2944,
      "bildung": 2945,
      "tank": 2946,
      "lh": 2947,
      "crack": 2948,
      "jt": 2949,
      "enn": 2950,
      "cotton": 2951,
      "famil": 2952,
      "kol": 2953,
      "ido": 2954,
      "194": 2955,
      "vr": 2956,
      "dir": 2957,
      "lights": 2958,
      "posit": 2959,
      "iles": 2960,
      "mos": 2961,
      "ability": 2962,
      "systems": 2963,
      "ando": 2964,
      "blank": 2965,
      "phys": 2966,
      "screen": 2967,
      "anne": 2968,
      "113": 2969,
      "dong": 2970,
      "perfor": 2971,
      "stein": 2972,
      "akes": 2973,
      "vc": 2974,
      "self": 2975,
      "lik": 2976,
      "benefits": 2977,
      "premi": 2978,
      "ema": 2979,
      "corona": 2980,
      "fail": 2981,
      "sound": 2982,
      "template": 2983,
      "medic": 2984,
      "fwww": 2985,
      "ima": 2986,
      "ctive": 2987,
      "abe": 2988,
      "returnurl": 2989,
      "brown": 2990,
      "bour": 2991,
      "ira": 2992,
      "dataitem": 2993,
      "ising": 2994,
      "testimonials": 2995,
      "nz": 2996,
      "won": 2997,
      "shtml": 2998,
      "corp": 2999,
      "shared": 3000,
      "clothing": 3001,
      "aer": 3002,
      "bike": 3003,
      "wol": 3004,
      "dlya": 3005,
      "recipes": 3006,
      "253": 3007,
      "sites": 3008,
      "jd": 3009,
      "recruit": 3010,
      "manufactur": 3011,
      "fran": 3012,
      "present": 3013,
      "clear": 3014,
      "channel": 3015,
      "ella": 3016,
      "veter": 3017,
      "2000": 3018,
      "istry": 3019,
      "eller": 3020,
      "angebote": 3021,
      "api": 3022,
      "contents": 3023,
      "cz": 3024,
      "126": 3025,
      "artikel": 3026,
      "visit": 3027,
      "arg": 3028,
      "nou": 3029,
      "workshop": 3030,
      "active": 3031,
      "mur": 3032,
      "andro": 3033,
      "baum": 3034,
      "135": 3035,
      "anda": 3036,
      "internet": 3037,
      "tpage": 3038,
      "ett": 3039,
      "young": 3040,
      "anst": 3041,
      "wing": 3042,
      "gest": 3043,
      "korea": 3044,
      "announ": 3045,
      "bilder": 3046,
      "roll": 3047,
      "cream": 3048,
      "chocol": 3049,
      "most": 3050,
      "inn": 3051,
      "ski": 3052,
      "two": 3053,
      "108": 3054,
      "vas": 3055,
      "jf": 3056,
      "isse": 3057,
      "invent": 3058,
      "tom": 3059,
      "society": 3060,
      "tip": 3061,
      "electric": 3062,
      "uni": 3063,
      "ord": 3064,
      "east": 3065,
      "uble": 3066,
      "127": 3067,
      "193": 3068,
      "chash": 3069,
      "flying": 3070,
      "brace": 3071,
      "ios": 3072,
      "ancy": 3073,
      "dur": 3074,
      "controller": 3075,
      "icon": 3076,
      "celebr": 3077,
      "eter": 3078,
      "coming": 3079,
      "wellness": 3080,
      "listings": 3081,
      "museum": 3082,
      "nature": 3083,
      "york": 3084,
      "bud": 3085,
      "force": 3086,
      "bridge": 3087,
      "mig": 3088,
      "dies": 3089,
      "illa": 3090,
      "james": 3091,
      "ela": 3092,
      "label": 3093,
      "alum": 3094,
      "ados": 3095,
      "yt": 3096,
      "alter": 3097,
      "suppli": 3098,
      "bla": 3099,
      "fresh": 3100,
      "verein": 3101,
      "florist": 3102,
      "lia": 3103,
      "assist": 3104,
      "icks": 3105,
      "dl": 3106,
      "eme": 3107,
      "coin": 3108,
      "outdoor": 3109,
      "agr": 3110,
      "nutrition": 3111,
      "chool": 3112,
      "109": 3113,
      "erung": 3114,
      "ension": 3115,
      "eff": 3116,
      "edia": 3117,
      "interview": 3118,
      "labor": 3119,
      "womens": 3120,
      "express": 3121,
      "into": 3122,
      "kinder": 3123,
      "keep": 3124,
      "sou": 3125,
      "essent": 3126,
      "wow": 3127,
      "tery": 3128,
      "curr": 3129,
      "iler": 3130,
      "smith": 3131,
      "instit": 3132,
      "nye": 3133,
      "result": 3134,
      "pharm": 3135,
      "bun": 3136,
      "leaders": 3137,
      "ingen": 3138,
      "ift": 3139,
      "categorie": 3140,
      "subid": 3141,
      "canc": 3142,
      "large": 3143,
      "thro": 3144,
      "umb": 3145,
      "awards": 3146,
      "ify": 3147,
      "oli": 3148,
      "gust": 3149,
      "oct": 3150,
      "conference": 3151,
      "wohn": 3152,
      "jb": 3153,
      "sit": 3154,
      "185": 3155,
      "124": 3156,
      "tut": 3157,
      "lete": 3158,
      "mak": 3159,
      "tmpl": 3160,
      "alog": 3161,
      "ym": 3162,
      "berry": 3163,
      "stx": 3164,
      "datenschutz": 3165,
      "ington": 3166,
      "rap": 3167,
      "lif": 3168,
      "ull": 3169,
      "bill": 3170,
      "jx": 3171,
      "bags": 3172,
      "kel": 3173,
      "ench": 3174,
      "fro": 3175,
      "lou": 3176,
      "recht": 3177,
      "registration": 3178,
      "np": 3179,
      "136": 3180,
      "sessionid": 3181,
      "hay": 3182,
      "unser": 3183,
      "ffer": 3184,
      "aling": 3185,
      "today": 3186,
      "130": 3187,
      "blu": 3188,
      "yes": 3189,
      "roof": 3190,
      "vietnam": 3191,
      "human": 3192,
      "ola": 3193,
      "002": 3194,
      "olutions": 3195,
      "finance": 3196,
      "dos": 3197,
      "dist": 3198,
      "cou": 3199,
      "drive": 3200,
      "liance": 3201,
      "share": 3202,
      "ih": 3203,
      "icket": 3204,
      "extra": 3205,
      "tpath": 3206,
      "thank": 3207,
      "asia": 3208,
      "111": 3209,
      "premium": 3210,
      "anner": 3211,
      "europe": 3212,
      "lis": 3213,
      "georg": 3214,
      "iry": 3215,
      "hold": 3216,
      "dienst": 3217,
      "american": 3218,
      "rooms": 3219,
      "jc": 3220,
      "edition": 3221,
      "iere": 3222,
      "thek": 3223,
      "vey": 3224,
      "dates": 3225,
      "iao": 3226,
      "esp": 3227,
      "uro": 3228,
      "137": 3229,
      "anna": 3230,
      "taxi": 3231,
      "119": 3232,
      "smo": 3233,
      "lich": 3234,
      "zel": 3235,
      "robots": 3236,
      "122": 3237,
      "203": 3238,
      "autohaus": 3239,
      "thep": 3240,
      "aka": 3241,
      "ister": 3242,
      "shoes": 3243,
      "youth": 3244,
      "sar": 3245,
      "ores": 3246,
      "dh": 3247,
      "children": 3248,
      "iro": 3249,
      "request": 3250,
      "205": 3251,
      "nx": 3252,
      "isen": 3253,
      "wik": 3254,
      "157": 3255,
      "206": 3256,
      "stral": 3257,
      "izz": 3258,
      "jr": 3259,
      "chester": 3260,
      "ctors": 3261,
      "module": 3262,
      "amar": 3263,
      "chic": 3264,
      "plug": 3265,
      "schweiz": 3266,
      "adult": 3267,
      "sz": 3268,
      "script": 3269,
      "llc": 3270,
      "lian": 3271,
      "lev": 3272,
      "exhi": 3273,
      "healthy": 3274,
      "experience": 3275,
      "fx": 3276,
      "anton": 3277,
      "2006": 3278,
      "lac": 3279,
      "fg": 3280,
      "grat": 3281,
      "wig": 3282,
      "cg": 3283,
      "times": 3284,
      "wt": 3285,
      "round": 3286,
      "sens": 3287,
      "untain": 3288,
      "ature": 3289,
      "ague": 3290,
      "tecno": 3291,
      "animal": 3292,
      "seite": 3293,
      "maxim": 3294,
      "ui": 3295,
      "ible": 3296,
      "140": 3297,
      "epages": 3298,
      "xe": 3299,
      "204": 3300,
      "bert": 3301,
      "virus": 3302,
      "emo": 3303,
      "mental": 3304,
      "cts": 3305,
      "chain": 3306,
      "factory": 3307,
      "promot": 3308,
      "berlin": 3309,
      "planning": 3310,
      "128": 3311,
      "168": 3312,
      "ecko": 3313,
      "yang": 3314,
      "thers": 3315,
      "grey": 3316,
      "cow": 3317,
      "should": 3318,
      "moon": 3319,
      "booking": 3320,
      "enge": 3321,
      "virgin": 3322,
      "schedule": 3323,
      "ags": 3324,
      "eta": 3325,
      "reci": 3326,
      "bam": 3327,
      "uen": 3328,
      "mich": 3329,
      "ases": 3330,
      "181": 3331,
      "sep": 3332,
      "novel": 3333,
      "teat": 3334,
      "ples": 3335,
      "performance": 3336,
      "vies": 3337,
      "catalo": 3338,
      "kim": 3339,
      "lc": 3340,
      "bern": 3341,
      "station": 3342,
      "jsessionid": 3343,
      "yy": 3344,
      "ave": 3345,
      "165": 3346,
      "anstalt": 3347,
      "184": 3348,
      "166": 3349,
      "region": 3350,
      "fotos": 3351,
      "florida": 3352,
      "sfl": 3353,
      "160": 3354,
      "shopdetail": 3355,
      "haw": 3356,
      "gri": 3357,
      "spirit": 3358,
      "tast": 3359,
      "theh": 3360,
      "brow": 3361,
      "arrings": 3362,
      "dark": 3363,
      "advis": 3364,
      "adi": 3365,
      "bien": 3366,
      "panel": 3367,
      "jul": 3368,
      "sung": 3369,
      "frank": 3370,
      "iva": 3371,
      "integr": 3372,
      "flooring": 3373,
      "veranstalt": 3374,
      "xw": 3375,
      "ares": 3376,
      "fus": 3377,
      "lake": 3378,
      "wholesale": 3379,
      "/__": 3380,
      "commerce": 3381,
      "dg": 3382,
      "kid": 3383,
      "france": 3384,
      "ais": 3385,
      "nh": 3386,
      "earrings": 3387,
      "ole": 3388,
      "objec": 3389,
      "183": 3390,
      "method": 3391,
      "thom": 3392,
      "rit": 3393,
      "thet": 3394,
      "compet": 3395,
      "cookies": 3396,
      "zeit": 3397,
      "187": 3398,
      "five": 3399,
      "como": 3400,
      "flam": 3401,
      "186": 3402,
      "certific": 3403,
      "encia": 3404,
      "ube": 3405,
      "got": 3406,
      "167": 3407,
      "prin": 3408,
      "element": 3409,
      "private": 3410,
      "pto": 3411,
      "spo": 3412,
      "nas": 3413,
      "fant": 3414,
      "objectpath": 3415,
      "welcome": 3416,
      "rh": 3417,
      "dj": 3418,
      "156": 3419,
      "ireland": 3420,
      "neh": 3421,
      "features": 3422,
      "tek": 3423,
      "types": 3424,
      "kauf": 3425,
      "does": 3426,
      "zg": 3427,
      "little": 3428,
      "chick": 3429,
      "feb": 3430,
      "painting": 3431,
      "fotograf": 3432,
      "146": 3433,
      "pageid": 3434,
      "134": 3435,
      "aki": 3436,
      "stp": 3437,
      "kyo": 3438,
      "rental": 3439,
      "florid": 3440,
      "fram": 3441,
      "folk": 3442,
      "ely": 3443,
      "bear": 3444,
      "param": 3445,
      "147": 3446,
      "legend": 3447,
      "cott": 3448,
      "take": 3449,
      "austral": 3450,
      "mom": 3451,
      "aug": 3452,
      "pear": 3453,
      "bee": 3454,
      "kop": 3455,
      "checko": 3456,
      "vp": 3457,
      "sos": 3458,
      "checkout": 3459,
      "strateg": 3460,
      "kra": 3461,
      "therapie": 3462,
      "dia": 3463,
      "bott": 3464,
      "cad": 3465,
      "grup": 3466,
      "155": 3467,
      "ses": 3468,
      "common": 3469,
      "gt": 3470,
      "nel": 3471,
      "itar": 3472,
      "impro": 3473,
      "gli": 3474,
      "gear": 3475,
      "foods": 3476,
      "multi": 3477,
      "dm": 3478,
      "144": 3479,
      "raz": 3480,
      "133": 3481,
      "kj": 3482,
      "deutsch": 3483,
      "modern": 3484,
      "shopbrand": 3485,
      "promo": 3486,
      "lifest": 3487,
      "clus": 3488,
      "iones": 3489,
      "domain": 3490,
      "trademark": 3491,
      "obitu": 3492,
      "career": 3493,
      "arab": 3494,
      "118": 3495,
      "schaft": 3496,
      "sie": 3497,
      "yr": 3498,
      "fw": 3499,
      "professional": 3500,
      "zent": 3501,
      "gia": 3502,
      "burn": 3503,
      "600": 3504,
      "natur": 3505,
      "landsc": 3506,
      "rand": 3507,
      "vu": 3508,
      "sample": 3509,
      "cris": 3510,
      "182": 3511,
      "145": 3512,
      "oring": 3513,
      "status": 3514,
      "det": 3515,
      "hk": 3516,
      "counsel": 3517,
      "richt": 3518,
      "inten": 3519,
      "activities": 3520,
      "lens": 3521,
      "wei": 3522,
      "object": 3523,
      "double": 3524,
      "pel": 3525,
      "august": 3526,
      "bey": 3527,
      "jas": 3528,
      "sys": 3529,
      "nn": 3530,
      "liv": 3531,
      "sust": 3532,
      "sion": 3533,
      "impact": 3534,
      "turn": 3535,
      "expert": 3536,
      "zl": 3537,
      "iphone": 3538,
      "application": 3539,
      "solar": 3540,
      "comments": 3541,
      "pun": 3542,
      "anced": 3543,
      "gaming": 3544,
      "sten": 3545,
      "uge": 3546,
      "leb": 3547,
      "manager": 3548,
      "sau": 3549,
      "utes": 3550,
      "rix": 3551,
      "inventory": 3552,
      "duid": 3553,
      "247": 3554,
      "central": 3555,
      "eye": 3556,
      "164": 3557,
      "ced": 3558,
      "iq": 3559,
      "resource": 3560,
      "introdu": 3561,
      "drink": 3562,
      "josh": 3563,
      "magic": 3564,
      "senior": 3565,
      "ytox": 3566,
      "143": 3567,
      "bao": 3568,
      "communic": 3569,
      "layout": 3570,
      "mand": 3571,
      "wire": 3572,
      "away": 3573,
      "lass": 3574,
      "viag": 3575,
      "ween": 3576,
      "than": 3577,
      "ught": 3578,
      "econo": 3579,
      "ision": 3580,
      "his": 3581,
      "forms": 3582,
      "fahrze": 3583,
      "branduid": 3584,
      "original": 3585,
      "jes": 3586,
      "orange": 3587,
      "automat": 3588,
      "marsh": 3589,
      "astro": 3590,
      "icas": 3591,
      "elf": 3592,
      "locations": 3593,
      "lp": 3594,
      "cookie": 3595,
      "jonath": 3596,
      "ization": 3597,
      "sor": 3598,
      "agro": 3599,
      "154": 3600,
      "interior": 3601,
      "song": 3602,
      "agu": 3603,
      "iser": 3604,
      "leo": 3605,
      "eto": 3606,
      "tagged": 3607,
      "dsc": 3608,
      "sb": 3609,
      "gate": 3610,
      "800": 3611,
      "plans": 3612,
      "perfect": 3613,
      "brit": 3614,
      "ports": 3615,
      "ators": 3616,
      "eur": 3617,
      "quality": 3618,
      "dance": 3619,
      "zum": 3620,
      "mie": 3621,
      "gym": 3622,
      "erson": 3623,
      "schul": 3624,
      "lines": 3625,
      "zn": 3626,
      "lift": 3627,
      "gew": 3628,
      "ables": 3629,
      "student": 3630,
      "marke": 3631,
      "ahr": 3632,
      "popular": 3633,
      "iors": 3634,
      "ytoxontzojeyoijrzxl": 3635,
      "simple": 3636,
      "223": 3637,
      "404": 3638,
      "__/": 3639,
      "mash": 3640,
      "139": 3641,
      "floral": 3642,
      "photograph": 3643,
      "hotels": 3644,
      "doors": 3645,
      "organic": 3646,
      "888": 3647,
      "windows": 3648,
      "cru": 3649,
      "studies": 3650,
      "prodot": 3651,
      "beer": 3652,
      "luxury": 3653,
      "android": 3654,
      "plo": 3655,
      "uary": 3656,
      "histor": 3657,
      "publish": 3658,
      "talk": 3659,
      "cake": 3660,
      "angebot": 3661,
      "jar": 3662,
      "bw": 3663,
      "lists": 3664,
      "vinyl": 3665,
      "berat": 3666,
      "132": 3667,
      "mort": 3668,
      "stan": 3669,
      "etime": 3670,
      "oro": 3671,
      "galleries": 3672,
      "jordan": 3673,
      "kap": 3674,
      "click": 3675,
      "ress": 3676,
      "supply": 3677,
      "153": 3678,
      "david": 3679,
      "kind": 3680,
      "guard": 3681,
      "query": 3682,
      "pab": 3683,
      "facebook": 3684,
      "teacher": 3685,
      "cock": 3686,
      "shopping": 3687,
      "think": 3688,
      "poly": 3689,
      "175": 3690,
      "creation": 3691,
      "sti": 3692,
      "march": 3693,
      "creek": 3694,
      "tattoo": 3695,
      "solution": 3696,
      "chart": 3697,
      "netsol": 3698,
      "jones": 3699,
      "deck": 3700,
      "duct": 3701,
      "jewell": 3702,
      "birthday": 3703,
      "edi": 3704,
      "ei": 3705,
      "netsoltrademark": 3706,
      "claim": 3707,
      "cases": 3708,
      "wers": 3709,
      "friends": 3710,
      "better": 3711,
      "asons": 3712,
      "cout": 3713,
      "oas": 3714,
      "april": 3715,
      "column": 3716,
      "km": 3717,
      "logist": 3718,
      "begin": 3719,
      "gong": 3720,
      "fron": 3721,
      "welt": 3722,
      "lighting": 3723,
      "loss": 3724,
      "nia": 3725,
      "170": 3726,
      "lifestyle": 3727,
      "stream": 3728,
      "prise": 3729,
      "fum": 3730,
      "questions": 3731,
      "effect": 3732,
      "uten": 3733,
      "america": 3734,
      "hem": 3735,
      "capital": 3736,
      "zip": 3737,
      "mex": 3738,
      "gle": 3739,
      "152": 3740,
      "gress": 3741,
      "buil": 3742,
      "dating": 3743,
      "voy": 3744,
      "gio": 3745,
      "pick": 3746,
      "rug": 3747,
      "blin": 3748,
      "here": 3749,
      "isi": 3750,
      "orn": 3751,
      "diamond": 3752,
      "wm": 3753,
      "lf": 3754,
      "currency": 3755,
      "cycle": 3756,
      "bury": 3757,
      "knowled": 3758,
      "cali": 3759,
      "solid": 3760,
      "trip": 3761,
      "joe": 3762,
      "sund": 3763,
      "task": 3764,
      "some": 3765,
      "hack": 3766,
      "users": 3767,
      "ules": 3768,
      "aku": 3769,
      "ieu": 3770,
      "diy": 3771,
      "chocolate": 3772,
      "sustain": 3773,
      "rc": 3774,
      "woo": 3775,
      "rier": 3776,
      "activity": 3777,
      "diet": 3778,
      "jax": 3779,
      "quart": 3780,
      "advice": 3781,
      "craig": 3782,
      "did": 3783,
      "stadt": 3784,
      "iano": 3785,
      "lim": 3786,
      "maur": 3787,
      "insights": 3788,
      "aga": 3789,
      "fine": 3790,
      "lib": 3791,
      "had": 3792,
      "lei": 3793,
      "years": 3794,
      "tages": 3795,
      "notes": 3796,
      "shirts": 3797,
      "lid": 3798,
      "ilo": 3799,
      "zm": 3800,
      "discus": 3801,
      "covery": 3802,
      "erc": 3803,
      "bund": 3804,
      "bei": 3805,
      "00000": 3806,
      "challenge": 3807,
      "?&": 3808,
      "sci": 3809,
      "episo": 3810,
      "gp": 3811,
      "142": 3812,
      "173": 3813,
      "ucht": 3814,
      "recipe": 3815,
      "gang": 3816,
      "uments": 3817,
      "inet": 3818,
      "foro": 3819,
      "clients": 3820,
      "funeral": 3821,
      "tl": 3822,
      "zw": 3823,
      "isa": 3824,
      "hau": 3825,
      "must": 3826,
      "atre": 3827,
      "river": 3828,
      "sj": 3829,
      "nid": 3830,
      "cash": 3831,
      "areas": 3832,
      "voice": 3833,
      "xis": 3834,
      "soul": 3835,
      "igen": 3836,
      "vio": 3837,
      "storage": 3838,
      "gd": 3839,
      "nj": 3840,
      "ivo": 3841,
      "copper": 3842,
      "novo": 3843,
      "weight": 3844,
      "geo": 3845,
      "making": 3846,
      "chev": 3847,
      "003": 3848,
      "aman": 3849,
      "cooper": 3850,
      "beck": 3851,
      "faqs": 3852,
      "nyc": 3853,
      "ahl": 3854,
      "kas": 3855,
      "bew": 3856,
      "bhz": 3857,
      "istan": 3858,
      "rss": 3859,
      "ono": 3860,
      "schools": 3861,
      "lod": 3862,
      "sed": 3863,
      "zur": 3864,
      "canada": 3865,
      "188": 3866,
      "129": 3867,
      "ravel": 3868,
      "portra": 3869,
      "awa": 3870,
      "arbeit": 3871,
      "vn": 3872,
      "wich": 3873,
      "trading": 3874,
      "nurs": 3875,
      "spot": 3876,
      "tress": 3877,
      "ude": 3878,
      "yan": 3879,
      "depart": 3880,
      "surg": 3881,
      "enger": 3882,
      "safe": 3883,
      "ebel": 3884,
      "cycl": 3885,
      "vl": 3886,
      "121": 3887,
      "zojq": 3888,
      "widget": 3889,
      "pant": 3890,
      "inj": 3891,
      "rus": 3892,
      "gaz": 3893,
      "glas": 3894,
      "qui": 3895,
      "scar": 3896,
      "version": 3897,
      "advert": 3898,
      "agement": 3899,
      "teil": 3900,
      "mang": 3901,
      "inh": 3902,
      "bk": 3903,
      "ila": 3904,
      "cbd": 3905,
      "models": 3906,
      "hosting": 3907,
      "rs": 3908,
      "spar": 3909,
      "hou": 3910,
      "hoc": 3911,
      "iko": 3912,
      "chu": 3913,
      "bass": 3914,
      "spl": 3915,
      "177": 3916,
      "font": 3917,
      "heit": 3918,
      "guan": 3919,
      "tun": 3920,
      "bac": 3921,
      "scode": 3922,
      "engineering": 3923,
      "poker": 3924,
      "kab": 3925,
      "inspir": 3926,
      "alon": 3927,
      "?_": 3928,
      "brook": 3929,
      "micha": 3930,
      "rim": 3931,
      "release": 3932,
      "deep": 3933,
      "rome": 3934,
      "ted": 3935,
      "kla": 3936,
      "downloads": 3937,
      "pric": 3938,
      "shipping": 3939,
      "yel": 3940,
      "league": 3941,
      "player": 3942,
      "spiel": 3943,
      "srl": 3944,
      "provid": 3945,
      "hir": 3946,
      "162": 3947,
      "lem": 3948,
      "ibil": 3949,
      "royal": 3950,
      "union": 3951,
      "atz": 3952,
      "172": 3953,
      "differ": 3954,
      "architekt": 3955,
      "masters": 3956,
      "jol": 3957,
      "episode": 3958,
      "standard": 3959,
      "mation": 3960,
      "schu": 3961,
      "companies": 3962,
      "maru": 3963,
      "award": 3964,
      "isation": 3965,
      "iento": 3966,
      "arte": 3967,
      "guest": 3968,
      "176": 3969,
      "inos": 3970,
      "kos": 3971,
      "realty": 3972,
      "fat": 3973,
      "ichte": 3974,
      "speed": 3975,
      "avail": 3976,
      "resp": 3977,
      "uri": 3978,
      "sq": 3979,
      "german": 3980,
      "united": 3981,
      "server": 3982,
      "erei": 3983,
      "taste": 3984,
      "herit": 3985,
      "vh": 3986,
      "255": 3987,
      "matthew": 3988,
      "guy": 3989,
      "pped": 3990,
      "artists": 3991,
      "eres": 3992,
      "ald": 3993,
      "krank": 3994,
      "technik": 3995,
      "ctures": 3996,
      "logie": 3997,
      "fold": 3998,
      "cade": 3999,
      "ario": 4000,
      "attor": 4001,
      "butter": 4002,
      "sig": 4003,
      "sac": 4004,
      "walk": 4005,
      "jung": 4006,
      "wrap": 4007,
      "abo": 4008,
      "industrial": 4009,
      "treatment": 4010,
      "dp": 4011,
      "ists": 4012,
      "gat": 4013,
      "classes": 4014,
      "dx": 4015,
      "000000": 4016,
      "aria": 4017,
      "yi": 4018,
      "bby": 4019,
      "healthcare": 4020,
      "ius": 4021,
      "asse": 4022,
      "doctor": 4023,
      "tron": 4024,
      "usic": 4025,
      "transport": 4026,
      "rl": 4027,
      "209": 4028,
      "total": 4029,
      "ised": 4030,
      "224": 4031,
      "bird": 4032,
      "sab": 4033,
      "spons": 4034,
      "oma": 4035,
      "arth": 4036,
      "ytoy": 4037,
      "escort": 4038,
      "left": 4039,
      "false": 4040,
      "apparel": 4041,
      "quiry": 4042,
      "ross": 4043,
      "dry": 4044,
      "iron": 4045,
      "cosmetic": 4046,
      "lost": 4047,
      "coop": 4048,
      "itas": 4049,
      "intern": 4050,
      "ever": 4051,
      "using": 4052,
      "estudi": 4053,
      "gab": 4054,
      "boro": 4055,
      "programs": 4056,
      "projekte": 4057,
      "annual": 4058,
      "realestate": 4059,
      "entertain": 4060,
      "iers": 4061,
      "current": 4062,
      "lessons": 4063,
      "dans": 4064,
      "race": 4065,
      "conse": 4066,
      "jen": 4067,
      "fdt": 4068,
      "=-": 4069,
      "2005": 4070,
      "studios": 4071,
      "pare": 4072,
      "wool": 4073,
      "fk": 4074,
      "enzen": 4075,
      "employ": 4076,
      "flege": 4077,
      "chamber": 4078,
      "159": 4079,
      "rank": 4080,
      "fq": 4081,
      "flight": 4082,
      "hoer": 4083,
      "limited": 4084,
      "whole": 4085,
      "aktuell": 4086,
      "association": 4087,
      "friday": 4088,
      "hai": 4089,
      "eden": 4090,
      "bian": 4091,
      "lip": 4092,
      "gc": 4093,
      "uio": 4094,
      "kurs": 4095,
      "disp": 4096,
      "selling": 4097,
      "inch": 4098,
      "being": 4099,
      "camera": 4100,
      "edge": 4101,
      "gesch": 4102,
      "appro": 4103,
      "210": 4104,
      "mature": 4105,
      "olymp": 4106,
      "official": 4107,
      "agram": 4108,
      "bonus": 4109,
      "fabric": 4110,
      "chicken": 4111,
      "dep": 4112,
      "agre": 4113,
      "exam": 4114,
      "golden": 4115,
      "laser": 4116,
      "production": 4117,
      "inger": 4118,
      "nap": 4119,
      "cket": 4120,
      "computer": 4121,
      "idential": 4122,
      "gon": 4123,
      "uma": 4124,
      "mason": 4125,
      "hero": 4126,
      "septem": 4127,
      "sug": 4128,
      "hm": 4129,
      "225": 4130,
      "marri": 4131,
      "veron": 4132,
      "attle": 4133,
      "174": 4134,
      "actualites": 4135,
      "ateur": 4136,
      "kno": 4137,
      "rik": 4138,
      "rt": 4139,
      "viol": 4140,
      "proble": 4141,
      "226": 4142,
      "grade": 4143,
      "university": 4144,
      "necklace": 4145,
      "rein": 4146,
      "quote": 4147,
      "gemein": 4148,
      "viron": 4149,
      "sher": 4150,
      "vine": 4151,
      "stro": 4152,
      "ento": 4153,
      "joh": 4154,
      "forward": 4155,
      "aires": 4156,
      "wort": 4157,
      "membership": 4158,
      "victoria": 4159,
      "138": 4160,
      "gfdt": 4161,
      "electron": 4162,
      "resort": 4163,
      "pai": 4164,
      "lamp": 4165,
      "boat": 4166,
      "zim": 4167,
      "nova": 4168,
      "opin": 4169,
      "johnson": 4170,
      "alu": 4171,
      "places": 4172,
      "irish": 4173,
      "foli": 4174,
      "tarot": 4175,
      "healing": 4176,
      "227": 4177,
      "220": 4178,
      "240": 4179,
      "bras": 4180,
      "movies": 4181,
      "snow": 4182,
      "443": 4183,
      "swim": 4184,
      "christian": 4185,
      "groups": 4186,
      "gla": 4187,
      "thero": 4188,
      "cia": 4189,
      "walt": 4190,
      "isra": 4191,
      "mask": 4192,
      "rics": 4193,
      "june": 4194,
      "ysis": 4195,
      "beratung": 4196,
      "mainten": 4197,
      "vehicle": 4198,
      "148": 4199,
      "aktiv": 4200,
      "yard": 4201,
      "holz": 4202,
      "ende": 4203,
      "july": 4204,
      "gage": 4205,
      "maz": 4206,
      "149": 4207,
      "avo": 4208,
      "chron": 4209,
      "sleeve": 4210,
      "cv": 4211,
      "imate": 4212,
      "cord": 4213,
      "boys": 4214,
      "pect": 4215,
      "package": 4216,
      "gmbh": 4217,
      "essen": 4218,
      "adventure": 4219,
      "advanced": 4220,
      "stellen": 4221,
      "presse": 4222,
      "ops": 4223,
      "manual": 4224,
      "bouquet": 4225,
      "hoch": 4226,
      "utter": 4227,
      "aper": 4228,
      "honey": 4229,
      "itter": 4230,
      "ioni": 4231,
      "position": 4232,
      "edo": 4233,
      "eva": 4234,
      "zhong": 4235,
      "kb": 4236,
      "cres": 4237,
      "parents": 4238,
      "pho": 4239,
      "fach": 4240,
      "stay": 4241,
      "train": 4242,
      "vg": 4243,
      "quil": 4244,
      "nit": 4245,
      "ierung": 4246,
      "again": 4247,
      "second": 4248,
      "rail": 4249,
      "browse": 4250,
      "french": 4251,
      "monthly": 4252,
      "piece": 4253,
      "aur": 4254,
      "coral": 4255,
      "arket": 4256,
      "fh": 4257,
      "inbhz": 4258,
      "izza": 4259,
      "shin": 4260,
      "uki": 4261,
      "contin": 4262,
      "ystem": 4263,
      "fili": 4264,
      "oto": 4265,
      "lum": 4266,
      "sweet": 4267,
      "bib": 4268,
      "bute": 4269,
      "fiv": 4270,
      "259": 4271,
      "topics": 4272,
      "ytoyontzojeyoijrzxl": 4273,
      "message": 4274,
      "192": 4275,
      "fond": 4276,
      "cles": 4277,
      "bec": 4278,
      "-/": 4279,
      "offers": 4280,
      "investment": 4281,
      "nude": 4282,
      "ending": 4283,
      "say": 4284,
      "trail": 4285,
      "230": 4286,
      "him": 4287,
      "garten": 4288,
      "condition": 4289,
      "stars": 4290,
      "qy": 4291,
      "xc": 4292,
      "hong": 4293,
      "303": 4294,
      "updates": 4295,
      "institute": 4296,
      "hotography": 4297,
      "gil": 4298,
      "mzoiywxsijtzojq": 4299,
      "athlet": 4300,
      "_-": 4301,
      "govern": 4302,
      "header": 4303,
      "qna": 4304,
      "merc": 4305,
      "wc": 4306,
      "azz": 4307,
      "liqu": 4308,
      "issue": 4309,
      "004": 4310,
      "elekt": 4311,
      "280": 4312,
      "rp": 4313,
      "indian": 4314,
      "carpet": 4315,
      "acle": 4316,
      "jug": 4317,
      "bracelet": 4318,
      "sha": 4319,
      "entertainment": 4320,
      "dings": 4321,
      "packaging": 4322,
      "deco": 4323,
      "dz": 4324,
      "domin": 4325,
      "touch": 4326,
      "growth": 4327,
      "pit": 4328,
      "paged": 4329,
      "tau": 4330,
      "nar": 4331,
      "xml": 4332,
      "leadership": 4333,
      "lands": 4334,
      "plants": 4335,
      "xinwen": 4336,
      "uts": 4337,
      "cats": 4338,
      "viral": 4339,
      "victory": 4340,
      "eine": 4341,
      "jos": 4342,
      "options": 4343,
      "shot": 4344,
      "kem": 4345,
      "sist": 4346,
      "tamp": 4347,
      "evo": 4348,
      "maintenance": 4349,
      "ersch": 4350,
      "letters": 4351,
      "phy": 4352,
      "ava": 4353,
      "eler": 4354,
      "esse": 4355,
      "near": 4356,
      "lesson": 4357,
      "amazon": 4358,
      "garage": 4359,
      "unge": 4360,
      "datetime": 4361,
      "myshop": 4362,
      "films": 4363,
      "ajax": 4364,
      "sunday": 4365,
      "qq": 4366,
      "kc": 4367,
      "dess": 4368,
      "chef": 4369,
      "concept": 4370,
      "hb": 4371,
      "crafts": 4372,
      "creations": 4373,
      "coll": 4374,
      "vt": 4375,
      "destination": 4376,
      "unterneh": 4377,
      "chor": 4378,
      "zube": 4379,
      "leben": 4380,
      "apes": 4381,
      "visa": 4382,
      "lm": 4383,
      "ista": 4384,
      "through": 4385,
      "yon": 4386,
      "moto": 4387,
      "mam": 4388,
      "jard": 4389,
      "casa": 4390,
      "avec": 4391,
      "pham": 4392,
      "foster": 4393,
      "brush": 4394,
      "cum": 4395,
      "resid": 4396,
      "patient": 4397,
      "labs": 4398,
      "jewellery": 4399,
      "environ": 4400,
      "kak": 4401,
      "civ": 4402,
      "bahn": 4403,
      "spect": 4404,
      "urun": 4405,
      "gloss": 4406,
      "rate": 4407,
      "rig": 4408,
      "fork": 4409,
      "dim": 4410,
      "trends": 4411,
      "etz": 4412,
      "zoom": 4413,
      "strategy": 4414,
      "kay": 4415,
      "hua": 4416,
      "aciones": 4417,
      "hid": 4418,
      "uae": 4419,
      "cork": 4420,
      "oires": 4421,
      "memberlist": 4422,
      "eren": 4423,
      "before": 4424,
      "eth": 4425,
      "iff": 4426,
      "131": 4427,
      "rick": 4428,
      "monit": 4429,
      "followers": 4430,
      "deals": 4431,
      "enh": 4432,
      "saint": 4433,
      "mond": 4434,
      "teaching": 4435,
      "wand": 4436,
      "lady": 4437,
      "oasis": 4438,
      "jz": 4439,
      "dorf": 4440,
      "este": 4441,
      "kunst": 4442,
      "subject": 4443,
      "ager": 4444,
      "horse": 4445,
      "yellow": 4446,
      "affili": 4447,
      "icher": 4448,
      "169": 4449,
      "villas": 4450,
      "kus": 4451,
      "rust": 4452,
      "spark": 4453,
      "uses": 4454,
      "kil": 4455,
      "records": 4456,
      "tube": 4457,
      "cosmetics": 4458,
      "uf": 4459,
      "apply": 4460,
      "caf": 4461,
      "sermon": 4462,
      "protect": 4463,
      "nan": 4464,
      "salon": 4465,
      "aco": 4466,
      "olution": 4467,
      "merch": 4468,
      "lest": 4469,
      "catalogue": 4470,
      "stage": 4471,
      "analysis": 4472,
      "oft": 4473,
      "aces": 4474,
      "dogs": 4475,
      "uno": 4476,
      "vement": 4477,
      "mx": 4478,
      "alternat": 4479,
      "cran": 4480,
      "michael": 4481,
      "hasht": 4482,
      "give": 4483,
      "counter": 4484,
      "september": 4485,
      "pump": 4486,
      "heat": 4487,
      "esia": 4488,
      "wind": 4489,
      "gv": 4490,
      "rez": 4491,
      "sleep": 4492,
      "atur": 4493,
      "hope": 4494,
      "address": 4495,
      "cheng": 4496,
      "vick": 4497,
      "hur": 4498,
      "beat": 4499,
      "iam": 4500,
      "xxx": 4501,
      "platform": 4502,
      "send": 4503,
      "prem": 4504,
      "insp": 4505,
      "unis": 4506,
      "colour": 4507,
      "jonathan": 4508,
      "obituaries": 4509,
      "bez": 4510,
      "158": 4511,
      "iful": 4512,
      "iele": 4513,
      "pk": 4514,
      "housing": 4515,
      "administ": 4516,
      "lewis": 4517,
      "getting": 4518,
      "208": 4519,
      "asa": 4520,
      "camping": 4521,
      "xs": 4522,
      "?/": 4523,
      "australia": 4524,
      "antes": 4525,
      "tn": 4526,
      "oxford": 4527,
      "dual": 4528,
      "bron": 4529,
      "cancer": 4530,
      "vincent": 4531,
      "wald": 4532,
      "airport": 4533,
      "alpha": 4534,
      "proof": 4535,
      "crypto": 4536,
      "bean": 4537,
      "hout": 4538,
      "eman": 4539,
      "cosmo": 4540,
      "amt": 4541,
      "opport": 4542,
      "cropped": 4543,
      "bikes": 4544,
      "lug": 4545,
      "exec": 4546,
      "veranstaltungen": 4547,
      "dete": 4548,
      "kok": 4549,
      "manufacturer": 4550,
      "iste": 4551,
      "bright": 4552,
      "lawyer": 4553,
      "cycling": 4554,
      "304": 4555,
      "eda": 4556,
      "gad": 4557,
      "desktop": 4558,
      "007": 4559,
      "prodotto": 4560,
      "jak": 4561,
      "categoryid": 4562,
      "256": 4563,
      "amster": 4564,
      "258": 4565,
      "cara": 4566,
      "paradise": 4567,
      "cing": 4568,
      "imes": 4569,
      "woman": 4570,
      "banner": 4571,
      "expo": 4572,
      "sets": 4573,
      "energ": 4574,
      "zar": 4575,
      "oi": 4576,
      "thern": 4577,
      "jersey": 4578,
      "commit": 4579,
      "supplies": 4580,
      "toys": 4581,
      "junior": 4582,
      "hq": 4583,
      "ups": 4584,
      "toy": 4585,
      "estore": 4586,
      "range": 4587,
      "venue": 4588,
      "knowledge": 4589,
      "surgery": 4590,
      "crew": 4591,
      "chiro": 4592,
      "hear": 4593,
      "mountain": 4594,
      "teen": 4595,
      "aq": 4596,
      "auction": 4597,
      "cio": 4598,
      "accom": 4599,
      "reserv": 4600,
      "instr": 4601,
      "245": 4602,
      "suit": 4603,
      "jie": 4604,
      "vibr": 4605,
      "178": 4606,
      "catering": 4607,
      "immobilien": 4608,
      "opportun": 4609,
      "dn": 4610,
      "apartments": 4611,
      "..": 4612,
      "235": 4613,
      "rag": 4614,
      "arma": 4615,
      "005": 4616,
      "rin": 4617,
      "234": 4618,
      "bom": 4619,
      "hin": 4620,
      "iling": 4621,
      "010": 4622,
      "conf": 4623,
      "ceram": 4624,
      "motors": 4625,
      "druck": 4626,
      "spread": 4627,
      "gay": 4628,
      "amsterdam": 4629,
      "coronavirus": 4630,
      "classid": 4631,
      "november": 4632,
      "jiang": 4633,
      "cj": 4634,
      "three": 4635,
      "aves": 4636,
      "once": 4637,
      "foam": 4638,
      "productions": 4639,
      "clar": 4640,
      "vm": 4641,
      "233": 4642,
      "innovation": 4643,
      "mist": 4644,
      "olar": 4645,
      "vot": 4646,
      "jay": 4647,
      "onlines": 4648,
      "issu": 4649,
      "franc": 4650,
      "jacket": 4651,
      "olo": 4652,
      "237": 4653,
      "350": 4654,
      "bz": 4655,
      "racing": 4656,
      "nee": 4657,
      "----": 4658,
      "236": 4659,
      "launch": 4660,
      "boost": 4661,
      "ired": 4662,
      "osc": 4663,
      "211": 4664,
      "esta": 4665,
      "unte": 4666,
      "termin": 4667,
      "final": 4668,
      "alp": 4669,
      "chapter": 4670,
      "eten": 4671,
      "eh": 4672,
      "ready": 4673,
      "bue": 4674,
      "bast": 4675,
      "testimonial": 4676,
      "abet": 4677,
      "guides": 4678,
      "sham": 4679,
      "drop": 4680,
      "matsu": 4681,
      "technical": 4682,
      "kai": 4683,
      "indon": 4684,
      "tz": 4685,
      "281": 4686,
      "gw": 4687,
      "unsere": 4688,
      "iques": 4689,
      "vino": 4690,
      "bmw": 4691,
      "ewor": 4692,
      "willi": 4693,
      "aver": 4694,
      "picture": 4695,
      "thu": 4696,
      "246": 4697,
      "215": 4698,
      "hart": 4699,
      "217": 4700,
      "leis": 4701,
      "gid": 4702,
      "graphic": 4703,
      "calcul": 4704,
      "aller": 4705,
      "plates": 4706,
      "vier": 4707,
      "apartment": 4708,
      "iller": 4709,
      "buk": 4710,
      "hes": 4711,
      "grad": 4712,
      "bx": 4713,
      "califor": 4714,
      "305": 4715,
      "999": 4716,
      "pix": 4717,
      "ionen": 4718,
      "xing": 4719,
      "stain": 4720,
      "quot": 4721,
      "ening": 4722,
      "mint": 4723,
      "kent": 4724,
      "reports": 4725,
      "israel": 4726,
      "heiten": 4727,
      "arrange": 4728,
      "chines": 4729,
      "nie": 4730,
      "nyj": 4731,
      "cann": 4732,
      "izer": 4733,
      "cen": 4734,
      "vins": 4735,
      "bq": 4736,
      "chel": 4737,
      "alty": 4738,
      "141": 4739,
      "question": 4740,
      "fz": 4741,
      "cub": 4742,
      "distribut": 4743,
      "diary": 4744,
      "cole": 4745,
      "ativ": 4746,
      "intel": 4747,
      "planet": 4748,
      "liste": 4749,
      "gour": 4750,
      "alles": 4751,
      "imag": 4752,
      "thec": 4753,
      "boards": 4754,
      "alumin": 4755,
      "wv": 4756,
      "inform": 4757,
      "retail": 4758,
      "installation": 4759,
      "heritage": 4760,
      "pts": 4761,
      "leaf": 4762,
      "aes": 4763,
      "mug": 4764,
      "ification": 4765,
      "solo": 4766,
      "token": 4767,
      "acao": 4768,
      "musik": 4769,
      "fed": 4770,
      "elly": 4771,
      "holic": 4772,
      "tick": 4773,
      "dex": 4774,
      "reading": 4775,
      "overview": 4776,
      "irs": 4777,
      "uo": 4778,
      "mai": 4779,
      "button": 4780,
      "frontpage": 4781,
      "tres": 4782,
      "spor": 4783,
      "dang": 4784,
      "abc": 4785,
      "prints": 4786,
      "essential": 4787,
      "publications": 4788,
      "zial": 4789,
      "techni": 4790,
      "pricing": 4791,
      "tru": 4792,
      "wie": 4793,
      "accessoires": 4794,
      "rice": 4795,
      "liche": 4796,
      "bedroom": 4797,
      "aren": 4798,
      "industries": 4799,
      "ilities": 4800,
      "sele": 4801,
      "oni": 4802,
      "222": 4803,
      "alk": 4804,
      "ride": 4805,
      "naya": 4806,
      "oso": 4807,
      "aca": 4808,
      "tanz": 4809,
      "span": 4810,
      "maker": 4811,
      "mk": 4812,
      "yd": 4813,
      "aso": 4814,
      "igo": 4815,
      "ulation": 4816,
      "191": 4817,
      "imm": 4818,
      "hoodie": 4819,
      "referenzen": 4820,
      "profession": 4821,
      "partic": 4822,
      "hav": 4823,
      "tic": 4824,
      "volunte": 4825,
      "alla": 4826,
      "tand": 4827,
      "igung": 4828,
      "discover": 4829,
      "hallo": 4830,
      "serie": 4831,
      "icy": 4832,
      "boot": 4833,
      "suche": 4834,
      "incl": 4835,
      "itation": 4836,
      "payment": 4837,
      "viajes": 4838,
      "want": 4839,
      "gj": 4840,
      "leit": 4841,
      "techt": 4842,
      "square": 4843,
      "bp": 4844,
      "tier": 4845,
      "inner": 4846,
      "212": 4847,
      "stuff": 4848,
      "orf": 4849,
      "pier": 4850,
      "shel": 4851,
      "uv": 4852,
      "sche": 4853,
      "imi": 4854,
      "257": 4855,
      "sheet": 4856,
      "uren": 4857,
      "marine": 4858,
      "beautiful": 4859,
      "213": 4860,
      "edesign": 4861,
      "illo": 4862,
      "bild": 4863,
      "oria": 4864,
      "ength": 4865,
      "placement": 4866,
      "pflege": 4867,
      "thi": 4868,
      "dont": 4869,
      "pure": 4870,
      "cong": 4871,
      "eshop": 4872,
      "strong": 4873,
      "slots": 4874,
      "teile": 4875,
      "psycho": 4876,
      "yers": 4877,
      "jud": 4878,
      "tg": 4879,
      "tile": 4880,
      "inas": 4881,
      "issen": 4882,
      "worldof": 4883,
      "rentals": 4884,
      "eters": 4885,
      "eces": 4886,
      "ffic": 4887,
      "patch": 4888,
      "plastic": 4889,
      "holidays": 4890,
      "matrix": 4891,
      "paul": 4892,
      "282": 4893,
      "feld": 4894,
      "anh": 4895,
      "vien": 4896,
      "save": 4897,
      "brain": 4898,
      "onomy": 4899,
      "gul": 4900,
      "nak": 4901,
      "homepage": 4902,
      "district": 4903,
      "hw": 4904,
      "earth": 4905,
      "footer": 4906,
      "284": 4907,
      "2004": 4908,
      "theatre": 4909,
      "bj": 4910,
      "png": 4911,
      "chet": 4912,
      "aud": 4913,
      "lus": 4914,
      "rv": 4915,
      "gos": 4916,
      "nost": 4917,
      "dynam": 4918,
      "candle": 4919,
      "urban": 4920,
      "mars": 4921,
      "299": 4922,
      "bloom": 4923,
      "champion": 4924,
      "dash": 4925,
      "ija": 4926,
      "markt": 4927,
      "counseling": 4928,
      "views": 4929,
      "corre": 4930,
      "kie": 4931,
      "sweat": 4932,
      "bst": 4933,
      "161": 4934,
      "shoot": 4935,
      "standing": 4936,
      "fleet": 4937,
      "och": 4938,
      "serial": 4939,
      "students": 4940,
      "worldwide": 4941,
      "abs": 4942,
      "nus": 4943,
      "princ": 4944,
      "announc": 4945,
      "wealth": 4946,
      "307": 4947,
      "born": 4948,
      "editor": 4949,
      "285": 4950,
      "divpage": 4951,
      "reasons": 4952,
      "flip": 4953,
      "900": 4954,
      "liter": 4955,
      "loan": 4956,
      "hashtags": 4957,
      "gut": 4958,
      "arbeits": 4959,
      "instagram": 4960,
      "aker": 4961,
      "trend": 4962,
      "kins": 4963,
      "kult": 4964,
      "lief": 4965,
      "pictures": 4966,
      "254": 4967,
      "lv": 4968,
      "valent": 4969,
      "choose": 4970,
      "fight": 4971,
      "petit": 4972,
      "apa": 4973,
      "cable": 4974,
      "weg": 4975,
      "favor": 4976,
      "boardid": 4977,
      "mut": 4978,
      "cape": 4979,
      "ria": 4980,
      "ferien": 4981,
      "ption": 4982,
      "290": 4983,
      "cottage": 4984,
      "jill": 4985,
      "cheap": 4986,
      "wave": 4987,
      "ulo": 4988,
      "queen": 4989,
      "occas": 4990,
      "eat": 4991,
      "dad": 4992,
      "ims": 4993,
      "engagement": 4994,
      "documents": 4995,
      "asian": 4996,
      "244": 4997,
      "emerg": 4998,
      "dale": 4999,
      "writer": 5000,
      "designer": 5001,
      "aps": 5002,
      "california": 5003,
      "parker": 5004,
      "uber": 5005,
      "teams": 5006,
      "hook": 5007,
      "orch": 5008,
      "dublin": 5009,
      "grill": 5010,
      "neys": 5011,
      "rang": 5012,
      "prevent": 5013,
      "nursing": 5014,
      "gence": 5015,
      "sym": 5016,
      "unden": 5017,
      "nord": 5018,
      "bapt": 5019,
      "214": 5020,
      "crete": 5021,
      "stores": 5022,
      "bv": 5023,
      "gum": 5024,
      "instru": 5025,
      "lov": 5026,
      "dle": 5027,
      "hak": 5028,
      "skills": 5029,
      "codes": 5030,
      "zero": 5031,
      "atic": 5032,
      "243": 5033,
      "xa": 5034,
      "pagen": 5035,
      "286": 5036,
      "drug": 5037,
      "kho": 5038,
      "crest": 5039,
      "crystal": 5040,
      "287": 5041,
      "bible": 5042,
      "rey": 5043,
      "neigh": 5044,
      "ismo": 5045,
      "mattress": 5046,
      "283": 5047,
      "rack": 5048,
      "lett": 5049,
      "vintag": 5050,
      "magazin": 5051,
      "counts": 5052,
      "jum": 5053,
      "leri": 5054,
      "indivi": 5055,
      "projekt": 5056,
      "recent": 5057,
      "acer": 5058,
      "151": 5059,
      "fet": 5060,
      "kd": 5061,
      "prepar": 5062,
      "record": 5063,
      "zentrum": 5064,
      "216": 5065,
      "eland": 5066,
      "adas": 5067,
      "gether": 5068,
      "seed": 5069,
      "experts": 5070,
      "elements": 5071,
      "logies": 5072,
      "rio": 5073,
      "castle": 5074,
      "iana": 5075,
      "oxy": 5076,
      "padd": 5077,
      "navig": 5078,
      "jig": 5079,
      "265": 5080,
      "293": 5081,
      "fres": 5082,
      "179": 5083,
      "blanc": 5084,
      "hamp": 5085,
      "maison": 5086,
      "eln": 5087,
      "hoo": 5088,
      "ustr": 5089,
      "shows": 5090,
      "tempor": 5091,
      "edin": 5092,
      "themo": 5093,
      "atory": 5094,
      "777": 5095,
      "306": 5096,
      "ridge": 5097,
      "termine": 5098,
      "aler": 5099,
      "amin": 5100,
      "hills": 5101,
      "servic": 5102,
      "prom": 5103,
      "carol": 5104,
      "string": 5105,
      "employe": 5106,
      "ibility": 5107,
      "ausbildung": 5108,
      "spra": 5109,
      "mv": 5110,
      "ships": 5111,
      "panor": 5112,
      "strategies": 5113,
      "redu": 5114,
      "collective": 5115,
      "augen": 5116,
      "prest": 5117,
      "pose": 5118,
      "texas": 5119,
      "rie": 5120,
      "zubehoer": 5121,
      "brief": 5122,
      "roman": 5123,
      "virginia": 5124,
      "beb": 5125,
      "hans": 5126,
      "lun": 5127,
      "lak": 5128,
      "yota": 5129,
      "isme": 5130,
      "eway": 5131,
      "tribe": 5132,
      "wq": 5133,
      "schwar": 5134,
      "idas": 5135,
      "lies": 5136,
      "printing": 5137,
      "pang": 5138,
      "holy": 5139,
      "steps": 5140,
      "seoul": 5141,
      "amen": 5142,
      "accommod": 5143,
      "atl": 5144,
      "produits": 5145,
      "febru": 5146,
      "their": 5147,
      "ames": 5148,
      "pizza": 5149,
      "feel": 5150,
      "iat": 5151,
      "contacts": 5152,
      "akade": 5153,
      "esign": 5154,
      "itat": 5155,
      "fleur": 5156,
      "aran": 5157,
      "nail": 5158,
      "analyt": 5159,
      "avto": 5160,
      "yst": 5161,
      "pars": 5162,
      "cpath": 5163,
      "oral": 5164,
      "kurse": 5165,
      "oda": 5166,
      "programme": 5167,
      "006": 5168,
      "nous": 5169,
      "around": 5170,
      "aci": 5171,
      "katalog": 5172,
      "offset": 5173,
      "mount": 5174,
      "dela": 5175,
      "hik": 5176,
      "198": 5177,
      "adam": 5178,
      "attri": 5179,
      "mari": 5180,
      "ako": 5181,
      "266": 5182,
      "six": 5183,
      "berger": 5184,
      "ervice": 5185,
      "fruit": 5186,
      "dee": 5187,
      "vegan": 5188,
      "predi": 5189,
      "feedback": 5190,
      "260": 5191,
      "aden": 5192,
      "tch": 5193,
      "maty": 5194,
      "295": 5195,
      "fas": 5196,
      "bling": 5197,
      "without": 5198,
      "bottle": 5199,
      "dentistry": 5200,
      "theo": 5201,
      "cyber": 5202,
      "kits": 5203,
      "exhibit": 5204,
      "cricket": 5205,
      "october": 5206,
      "echt": 5207,
      "296": 5208,
      "available": 5209,
      "crist": 5210,
      "275": 5211,
      "fue": 5212,
      "immobilier": 5213,
      "yen": 5214,
      "taz": 5215,
      "robot": 5216,
      "battery": 5217,
      "294": 5218,
      "wheels": 5219,
      "incre": 5220,
      "dk": 5221,
      "orge": 5222,
      "lane": 5223,
      "verse": 5224,
      "viewtopic": 5225,
      "leonard": 5226,
      "het": 5227,
      "eline": 5228,
      "dez": 5229,
      "secure": 5230,
      "marketp": 5231,
      "dining": 5232,
      "asset": 5233,
      "ype": 5234,
      "bere": 5235,
      "ello": 5236,
      "ellen": 5237,
      "gers": 5238,
      "lounge": 5239,
      "mh": 5240,
      "sap": 5241,
      "bres": 5242,
      "january": 5243,
      "automation": 5244,
      "coupons": 5245,
      "transfer": 5246,
      "edy": 5247,
      "weekly": 5248,
      "architecture": 5249,
      "scot": 5250,
      "tops": 5251,
      "inside": 5252,
      "ashi": 5253,
      "unisex": 5254,
      "pets": 5255,
      "praxis": 5256,
      "cooking": 5257,
      "fog": 5258,
      "respons": 5259,
      "ueb": 5260,
      "thomas": 5261,
      "ours": 5262,
      "nutri": 5263,
      "interest": 5264,
      "finish": 5265,
      "proce": 5266,
      "blan": 5267,
      "andreas": 5268,
      "700": 5269,
      "acqu": 5270,
      "tennis": 5271,
      "doing": 5272,
      "ueil": 5273,
      "boss": 5274,
      "tproduct": 5275,
      "rev": 5276,
      "806": 5277,
      "rical": 5278,
      "bition": 5279,
      "bookings": 5280,
      "uel": 5281,
      "297": 5282,
      "pn": 5283,
      "formula": 5284,
      "mj": 5285,
      "nic": 5286,
      "motive": 5287,
      "pie": 5288,
      "stress": 5289,
      "complete": 5290,
      "unternehmen": 5291,
      "interiors": 5292,
      "aly": 5293,
      "logia": 5294,
      "upload": 5295,
      "reser": 5296,
      "typeid": 5297,
      "mz": 5298,
      "aust": 5299,
      "fores": 5300,
      "conserv": 5301,
      "elektro": 5302,
      "hour": 5303,
      "tape": 5304,
      "libra": 5305,
      "sole": 5306,
      "parfum": 5307,
      "rup": 5308,
      "device": 5309,
      "parking": 5310,
      "allgemein": 5311,
      "carbon": 5312,
      "pup": 5313,
      "isco": 5314,
      "freed": 5315,
      "thenew": 5316,
      "collect": 5317,
      "guitar": 5318,
      "reisen": 5319,
      "umn": 5320,
      "nation": 5321,
      "faith": 5322,
      "attorney": 5323,
      "oph": 5324,
      "tasty": 5325,
      "syn": 5326,
      "277": 5327,
      "revol": 5328,
      "jimmy": 5329,
      "kart": 5330,
      "reset": 5331,
      "thermo": 5332,
      "oned": 5333,
      "cakes": 5334,
      "267": 5335,
      "wagen": 5336,
      "tant": 5337,
      "machines": 5338,
      "oe": 5339,
      "emot": 5340,
      "403": 5341,
      "ishi": 5342,
      "idxno": 5343,
      "aster": 5344,
      "unde": 5345,
      "december": 5346,
      "exerc": 5347,
      "pow": 5348,
      "eball": 5349,
      "infos": 5350,
      "eros": 5351,
      "owl": 5352,
      "balance": 5353,
      "divers": 5354,
      "spray": 5355,
      "infin": 5356,
      "houses": 5357,
      "costa": 5358,
      "still": 5359,
      "sery": 5360,
      "awo": 5361,
      "santa": 5362,
      "405": 5363,
      "zhu": 5364,
      "tub": 5365,
      "communication": 5366,
      "tienda": 5367,
      "tras": 5368,
      "statt": 5369,
      "joom": 5370,
      "kv": 5371,
      "tart": 5372,
      "wicked": 5373,
      "lung": 5374,
      "beau": 5375,
      "uku": 5376,
      "switch": 5377,
      "uter": 5378,
      "geek": 5379,
      "ood": 5380,
      "landing": 5381,
      "window": 5382,
      "function": 5383,
      "lers": 5384,
      "coco": 5385,
      "leigh": 5386,
      "schlag": 5387,
      "oren": 5388,
      "half": 5389,
      "805": 5390,
      "ady": 5391,
      "fied": 5392,
      "attra": 5393,
      "avan": 5394,
      "hors": 5395,
      "knit": 5396,
      "src": 5397,
      "accueil": 5398,
      "error": 5399,
      "easter": 5400,
      "inquiry": 5401,
      "releases": 5402,
      "izing": 5403,
      "chinese": 5404,
      "yz": 5405,
      "bing": 5406,
      "productos": 5407,
      "arc": 5408,
      "charity": 5409,
      "rip": 5410,
      "youtube": 5411,
      "competition": 5412,
      "teatro": 5413,
      "gets": 5414,
      "sach": 5415,
      "boxes": 5416,
      "fang": 5417,
      "weddings": 5418,
      "276": 5419,
      "pir": 5420,
      "honda": 5421,
      "pus": 5422,
      "afric": 5423,
      "preview": 5424,
      "basketball": 5425,
      "chanpin": 5426,
      "gesund": 5427,
      "nal": 5428,
      "holder": 5429,
      "334": 5430,
      "peter": 5431,
      "dead": 5432,
      "appoint": 5433,
      "igital": 5434,
      "signs": 5435,
      "ladies": 5436,
      "fahrzeug": 5437,
      "inspe": 5438,
      "quan": 5439,
      "based": 5440,
      "thelit": 5441,
      "ordin": 5442,
      "themes": 5443,
      "mitgli": 5444,
      "modules": 5445,
      "tell": 5446,
      "diag": 5447,
      "onet": 5448,
      "jiu": 5449,
      "visual": 5450,
      "zeich": 5451,
      "scott": 5452,
      "sew": 5453,
      "yj": 5454,
      "velvet": 5455,
      "aste": 5456,
      "bread": 5457,
      "magnet": 5458,
      "ettes": 5459,
      "joel": 5460,
      "independ": 5461,
      "ulum": 5462,
      "criminal": 5463,
      "poster": 5464,
      "minist": 5465,
      "modi": 5466,
      "residential": 5467,
      "sir": 5468,
      "fiel": 5469,
      "theres": 5470,
      "vehicles": 5471,
      "nest": 5472,
      "bub": 5473,
      "wein": 5474,
      "ikon": 5475,
      "instance": 5476,
      "ots": 5477,
      "italian": 5478,
      "leisure": 5479,
      "westp": 5480,
      "artwork": 5481,
      "ulture": 5482,
      "contract": 5483,
      "eo": 5484,
      "amel": 5485,
      "slider": 5486,
      "336": 5487,
      "gardens": 5488,
      "isan": 5489,
      "illes": 5490,
      "discussion": 5491,
      "zd": 5492,
      "joan": 5493,
      "associates": 5494,
      "peri": 5495,
      "171": 5496,
      "statement": 5497,
      "poet": 5498,
      "dragon": 5499,
      "cant": 5500,
      "mein": 5501,
      "fluid": 5502,
      "amor": 5503,
      "appli": 5504,
      "pharmacy": 5505,
      "builder": 5506,
      "264": 5507,
      "fusion": 5508,
      "forgot": 5509,
      "cote": 5510,
      "hung": 5511,
      "creating": 5512,
      "holly": 5513,
      "viewprofile": 5514,
      "nouvel": 5515,
      "johnny": 5516,
      "/?_": 5517,
      "command": 5518,
      "secret": 5519,
      "testing": 5520,
      "verde": 5521,
      "benz": 5522,
      "bullet": 5523,
      "lent": 5524,
      "avenue": 5525,
      "medicine": 5526,
      "rise": 5527,
      "locale": 5528,
      "judi": 5529,
      "nun": 5530,
      "gig": 5531,
      "ultimate": 5532,
      "kup": 5533,
      "pearl": 5534,
      "russ": 5535,
      "orth": 5536,
      "louis": 5537,
      "papers": 5538,
      "shan": 5539,
      "programm": 5540,
      "british": 5541,
      "omo": 5542,
      "entrepr": 5543,
      "sear": 5544,
      "argent": 5545,
      "italy": 5546,
      "chicago": 5547,
      "choice": 5548,
      "270": 5549,
      "roofing": 5550,
      "sent": 5551,
      "concer": 5552,
      "brun": 5553,
      "embed": 5554,
      "shine": 5555,
      "px": 5556,
      "aser": 5557,
      "circle": 5558,
      "kong": 5559,
      "aru": 5560,
      "cron": 5561,
      "asing": 5562,
      "vista": 5563,
      "320": 5564,
      "urish": 5565,
      "itional": 5566,
      "abi": 5567,
      "urgery": 5568,
      "facts": 5569,
      "clusive": 5570,
      "annivers": 5571,
      "vat": 5572,
      "intelli": 5573,
      "tickets": 5574,
      "umbing": 5575,
      "likes": 5576,
      "fortun": 5577,
      "roses": 5578,
      "employment": 5579,
      "zhi": 5580,
      "450": 5581,
      "335": 5582,
      "vw": 5583,
      "grund": 5584,
      "lyn": 5585,
      "pros": 5586,
      "thought": 5587,
      "role": 5588,
      "nb": 5589,
      "kum": 5590,
      "yours": 5591,
      "avy": 5592,
      "handmade": 5593,
      "abu": 5594,
      "marys": 5595,
      "recovery": 5596,
      "purple": 5597,
      "nuo": 5598,
      "forumdisplay": 5599,
      "goto": 5600,
      "vendors": 5601,
      "mik": 5602,
      "barcel": 5603,
      "kers": 5604,
      "indonesia": 5605,
      "lek": 5606,
      "viking": 5607,
      "lette": 5608,
      "finder": 5609,
      "taxonomy": 5610,
      "datenschut": 5611,
      "prime": 5612,
      "25252525": 5613,
      "bos": 5614,
      "nung": 5615,
      "zug": 5616,
      "tpass": 5617,
      "ird": 5618,
      "noe": 5619,
      "2003": 5620,
      "retro": 5621,
      "ission": 5622,
      "abel": 5623,
      "906": 5624,
      "redi": 5625,
      "alan": 5626,
      "mortgage": 5627,
      "vre": 5628,
      "owners": 5629,
      "gef": 5630,
      "scho": 5631,
      "schaf": 5632,
      "mouth": 5633,
      "filters": 5634,
      "venture": 5635,
      "guid": 5636,
      "consum": 5637,
      "bcontroller": 5638,
      "icios": 5639,
      "advertising": 5640,
      "chal": 5641,
      "horiz": 5642,
      "248": 5643,
      "amento": 5644,
      "introduction": 5645,
      "hockey": 5646,
      "seminar": 5647,
      "mul": 5648,
      "380": 5649,
      "ination": 5650,
      "rei": 5651,
      "broad": 5652,
      "asure": 5653,
      "atom": 5654,
      "thai": 5655,
      "bcr": 5656,
      "bois": 5657,
      "bowl": 5658,
      "mine": 5659,
      "jazz": 5660,
      "assess": 5661,
      "autumn": 5662,
      "addi": 5663,
      "ixun": 5664,
      "seat": 5665,
      "agentur": 5666,
      "bru": 5667,
      "wasser": 5668,
      "bia": 5669,
      "oa": 5670,
      "263": 5671,
      "815": 5672,
      "joann": 5673,
      "halloween": 5674,
      "barn": 5675,
      "crit": 5676,
      "physio": 5677,
      "agreement": 5678,
      "cozy": 5679,
      "vente": 5680,
      "assem": 5681,
      "embro": 5682,
      "aks": 5683,
      "injury": 5684,
      "406": 5685,
      "ervices": 5686,
      "uke": 5687,
      "survey": 5688,
      "kli": 5689,
      "outlet": 5690,
      "crafty": 5691,
      "promotion": 5692,
      "during": 5693,
      "iches": 5694,
      "soap": 5695,
      "pb": 5696,
      "vom": 5697,
      "pharma": 5698,
      "yx": 5699,
      "gruppe": 5700,
      "xay": 5701,
      "oth": 5702,
      "hardware": 5703,
      "reach": 5704,
      "fru": 5705,
      "cai": 5706,
      "ecre": 5707,
      "execut": 5708,
      "iu": 5709,
      "colors": 5710,
      "rm": 5711,
      "theater": 5712,
      "stainless": 5713,
      "coron": 5714,
      "hg": 5715,
      "pens": 5716,
      "fans": 5717,
      "mexico": 5718,
      "383": 5719,
      "vik": 5720,
      "accommodation": 5721,
      "aber": 5722,
      "juli": 5723,
      "move": 5724,
      "motion": 5725,
      "biblio": 5726,
      "hig": 5727,
      "stech": 5728,
      "daniel": 5729,
      "ivals": 5730,
      "lez": 5731,
      "zimmer": 5732,
      "roup": 5733,
      "datenschutzer": 5734,
      "audit": 5735,
      "canvas": 5736,
      "zc": 5737,
      "inary": 5738,
      "matth": 5739,
      "klaerung": 5740,
      "friendly": 5741,
      "issues": 5742,
      "tum": 5743,
      "fuck": 5744,
      "moving": 5745,
      "virg": 5746,
      "socc": 5747,
      "affiliate": 5748,
      "trav": 5749,
      "fee": 5750,
      "insight": 5751,
      "zon": 5752,
      "239": 5753,
      "adel": 5754,
      "aris": 5755,
      "explore": 5756,
      "medien": 5757,
      "lodge": 5758,
      "raum": 5759,
      "minutes": 5760,
      "hydro": 5761,
      "early": 5762,
      "stack": 5763,
      "basel": 5764,
      "popup": 5765,
      "connection": 5766,
      "clip": 5767,
      "337": 5768,
      "onto": 5769,
      "budget": 5770,
      "breakfast": 5771,
      "imal": 5772,
      "discount": 5773,
      "innen": 5774,
      "232": 5775,
      "smile": 5776,
      "bathroom": 5777,
      "817": 5778,
      "milk": 5779,
      "grace": 5780,
      "238": 5781,
      "agents": 5782,
      "smar": 5783,
      "fortune": 5784,
      "paradis": 5785,
      "forma": 5786,
      "seg": 5787,
      "vertical": 5788,
      "samsung": 5789,
      "osa": 5790,
      "umen": 5791,
      "tany": 5792,
      "essay": 5793,
      "generation": 5794,
      "portrait": 5795,
      "maryland": 5796,
      "hilfe": 5797,
      "bly": 5798,
      "adventures": 5799,
      "ict": 5800,
      "daf": 5801,
      "doma": 5802,
      "stjohn": 5803,
      "249": 5804,
      "soon": 5805,
      "curric": 5806,
      "905": 5807,
      "usb": 5808,
      "itions": 5809,
      "illustr": 5810,
      "comun": 5811,
      "weekend": 5812,
      "wards": 5813,
      "baction": 5814,
      "udo": 5815,
      "arms": 5816,
      "etre": 5817,
      "licht": 5818,
      "policies": 5819,
      "lage": 5820,
      "iri": 5821,
      "gru": 5822,
      "eq": 5823,
      "uli": 5824,
      "807": 5825,
      "lagen": 5826,
      "automotive": 5827,
      "reise": 5828,
      "gray": 5829,
      "dienstleistungen": 5830,
      "barbar": 5831,
      "february": 5832,
      "estudio": 5833,
      "recruitment": 5834,
      "yw": 5835,
      "graf": 5836,
      "cue": 5837,
      "ania": 5838,
      "scale": 5839,
      "lb": 5840,
      "tak": 5841,
      "driver": 5842,
      "228": 5843,
      "sustainable": 5844,
      "concert": 5845,
      "opening": 5846,
      "replacement": 5847,
      "sure": 5848,
      "frei": 5849,
      "1004": 5850,
      "rian": 5851,
      "landscape": 5852,
      "porno": 5853,
      "prec": 5854,
      "kul": 5855,
      "229": 5856,
      "illy": 5857,
      "242": 5858,
      "toyota": 5859,
      "189": 5860,
      "rece": 5861,
      "krankheiten": 5862,
      "oscsid": 5863,
      "tables": 5864,
      "politica": 5865,
      "mans": 5866,
      "cold": 5867,
      "ubun": 5868,
      "beef": 5869,
      "baeck": 5870,
      "andco": 5871,
      "obid": 5872,
      "dw": 5873,
      "geme": 5874,
      "materials": 5875,
      "mercedes": 5876,
      "395": 5877,
      "cac": 5878,
      "anmel": 5879,
      "matte": 5880,
      "analytics": 5881,
      "ultra": 5882,
      "applications": 5883,
      "andy": 5884,
      "393": 5885,
      "umi": 5886,
      "hao": 5887,
      "exhibition": 5888,
      "jean": 5889,
      "packages": 5890,
      "yuan": 5891,
      "headnum": 5892,
      "mia": 5893,
      "exchange": 5894,
      "suisse": 5895,
      "boots": 5896,
      "iven": 5897,
      "marks": 5898,
      "padel": 5899,
      "fuel": 5900,
      "xo": 5901,
      "heating": 5902,
      "fill": 5903,
      "til": 5904,
      "baseball": 5905,
      "westcoast": 5906,
      "together": 5907,
      "345": 5908,
      "rating": 5909,
      "816": 5910,
      "omi": 5911,
      "blood": 5912,
      "aba": 5913,
      "jur": 5914,
      "beh": 5915,
      "tatto": 5916,
      "flug": 5917,
      "branding": 5918,
      "igan": 5919,
      "stamp": 5920,
      "upply": 5921,
      "bef": 5922,
      "elite": 5923,
      "cav": 5924,
      "foss": 5925,
      "running": 5926,
      "quer": 5927,
      "surf": 5928,
      "274": 5929,
      "restor": 5930,
      "adio": 5931,
      "375": 5932,
      ".-": 5933,
      "acces": 5934,
      "which": 5935,
      "barcelona": 5936,
      "veget": 5937,
      "ln": 5938,
      "wur": 5939,
      "they": 5940,
      "horn": 5941,
      "hus": 5942,
      "eful": 5943,
      "sang": 5944,
      "zig": 5945,
      "antic": 5946,
      "ology": 5947,
      "dum": 5948,
      "leader": 5949,
      "wright": 5950,
      "late": 5951,
      "beyond": 5952,
      "zak": 5953,
      "anth": 5954,
      "axy": 5955,
      "231": 5956,
      "cheese": 5957,
      "bella": 5958,
      "templates": 5959,
      "profil": 5960,
      "ontar": 5961,
      "arom": 5962,
      "conce": 5963,
      "pais": 5964,
      "rules": 5965,
      "olf": 5966,
      "workshops": 5967,
      "bayern": 5968,
      "thumb": 5969,
      "candy": 5970,
      "396": 5971,
      "writers": 5972,
      "allo": 5973,
      "inspiration": 5974,
      "ework": 5975,
      "weiss": 5976,
      "alab": 5977,
      "hh": 5978,
      "explor": 5979,
      "root": 5980,
      "rer": 5981,
      "tox": 5982,
      "each": 5983,
      "onem": 5984,
      "825": 5985,
      "bate": 5986,
      "chip": 5987,
      "bbq": 5988,
      "risk": 5989,
      "informat": 5990,
      "propos": 5991,
      "coat": 5992,
      "drum": 5993,
      "lil": 5994,
      "pno": 5995,
      "inery": 5996,
      "avis": 5997,
      "workout": 5998,
      "metall": 5999,
      "relation": 6000,
      "907": 6001,
      "borough": 6002,
      "666": 6003,
      "schwarz": 6004,
      "eca": 6005,
      "394": 6006,
      "adap": 6007,
      "wines": 6008,
      "stag": 6009,
      "estar": 6010,
      "ike": 6011,
      "amateur": 6012,
      "wonder": 6013,
      "aar": 6014,
      "defin": 6015,
      "abstra": 6016,
      "soccer": 6017,
      "belle": 6018,
      "302": 6019,
      "lees": 6020,
      "alpen": 6021,
      "forder": 6022,
      "zj": 6023,
      "pis": 6024,
      "meetings": 6025,
      "tok": 6026,
      "steph": 6027,
      "freedom": 6028,
      "407": 6029,
      "rings": 6030,
      "pret": 6031,
      "agb": 6032,
      "xm": 6033,
      "entes": 6034,
      "driving": 6035,
      "baptist": 6036,
      "nm": 6037,
      "pep": 6038,
      "917": 6039,
      "breast": 6040,
      "foreign": 6041,
      "raft": 6042,
      "signup": 6043,
      "505": 6044,
      "harmon": 6045,
      "ader": 6046,
      "riere": 6047,
      "ueh": 6048,
      "victori": 6049,
      "plain": 6050,
      "sant": 6051,
      "morning": 6052,
      "310": 6053,
      "seek": 6054,
      "221": 6055,
      "summit": 6056,
      "harris": 6057,
      "provider": 6058,
      "neo": 6059,
      "going": 6060,
      "defense": 6061,
      "bitcoin": 6062,
      "demand": 6063,
      "aqua": 6064,
      "weather": 6065,
      "comic": 6066,
      "iden": 6067,
      "joker": 6068,
      "burger": 6069,
      "251": 6070,
      "aded": 6071,
      "rae": 6072,
      "venus": 6073,
      "neue": 6074,
      "buying": 6075,
      "soc": 6076,
      "whites": 6077,
      "100000": 6078,
      "xr": 6079,
      "mile": 6080,
      "hut": 6081,
      "dinner": 6082,
      "nys": 6083,
      "384": 6084,
      "ulpt": 6085,
      "sis": 6086,
      "stam": 6087,
      "imper": 6088,
      "damen": 6089,
      "normal": 6090,
      "pieces": 6091,
      "collabor": 6092,
      "::": 6093,
      "366": 6094,
      "zboard": 6095,
      "speaker": 6096,
      "polo": 6097,
      "points": 6098,
      "jugend": 6099,
      "makeup": 6100,
      "hein": 6101,
      "charact": 6102,
      "iii": 6103,
      "rah": 6104,
      "anny": 6105,
      "315": 6106,
      "sul": 6107,
      "lean": 6108,
      "practic": 6109,
      "tpassword": 6110,
      "zp": 6111,
      "kaufen": 6112,
      "teachers": 6113,
      "heb": 6114,
      "jewish": 6115,
      "399": 6116,
      "pension": 6117,
      "plumbing": 6118,
      "yun": 6119,
      "oms": 6120,
      "memorial": 6121,
      "cox": 6122,
      "respon": 6123,
      "guanwang": 6124,
      "childrens": 6125,
      "904": 6126,
      "sters": 6127,
      "827": 6128,
      "pattern": 6129,
      "cuis": 6130,
      "important": 6131,
      "sugar": 6132,
      "mother": 6133,
      "vida": 6134,
      "pants": 6135,
      "keit": 6136,
      "contest": 6137,
      "animals": 6138,
      "acry": 6139,
      "eleg": 6140,
      "gent": 6141,
      "pum": 6142,
      "uche": 6143,
      "sermons": 6144,
      "italia": 6145,
      "watches": 6146,
      "artific": 6147,
      "meng": 6148,
      "procedu": 6149,
      "604": 6150,
      "dai": 6151,
      "ife": 6152,
      "327": 6153,
      "requ": 6154,
      "aping": 6155,
      "removal": 6156,
      "campus": 6157,
      "cpa": 6158,
      "feng": 6159,
      "loans": 6160,
      "etiquet": 6161,
      "articleview": 6162,
      "anze": 6163,
      "bundle": 6164,
      "mailto": 6165,
      "panda": 6166,
      "netz": 6167,
      "dae": 6168,
      "enix": 6169,
      "tash": 6170,
      "technologies": 6171,
      "rela": 6172,
      "zhan": 6173,
      "alliance": 6174,
      "become": 6175,
      "sper": 6176,
      "rieb": 6177,
      "gk": 6178,
      "shorts": 6179,
      "vv": 6180,
      "quiz": 6181,
      "concrete": 6182,
      "acio": 6183,
      "esch": 6184,
      "pig": 6185,
      "socks": 6186,
      "rb": 6187,
      "288": 6188,
      "sobre": 6189,
      "contacto": 6190,
      "initi": 6191,
      "/-/": 6192,
      "purch": 6193,
      "umber": 6194,
      "emergency": 6195,
      "forec": 6196,
      "police": 6197,
      "accounting": 6198,
      "covers": 6199,
      "xu": 6200,
      "sellers": 6201,
      "liang": 6202,
      "quad": 6203,
      "cw": 6204,
      "raw": 6205,
      "qt": 6206,
      "bull": 6207,
      "rights": 6208,
      "apol": 6209,
      "241": 6210,
      "philip": 6211,
      "hole": 6212,
      "eid": 6213,
      "silk": 6214,
      "spin": 6215,
      "435": 6216,
      "donate": 6217,
      "tains": 6218,
      "luz": 6219,
      "437": 6220,
      "graphics": 6221,
      "dresses": 6222,
      "ancing": 6223,
      "mol": 6224,
      "uxe": 6225,
      "reference": 6226,
      "antique": 6227,
      "cion": 6228,
      "thema": 6229,
      "sexy": 6230,
      "hey": 6231,
      "alexander": 6232,
      "apk": 6233,
      "allas": 6234,
      "curriculum": 6235,
      "nah": 6236,
      "ecare": 6237,
      "uka": 6238,
      "kov": 6239,
      "another": 6240,
      "ambi": 6241,
      "albums": 6242,
      "333": 6243,
      "tango": 6244,
      "nurse": 6245,
      "sticker": 6246,
      "480": 6247,
      "pace": 6248,
      "muen": 6249,
      "hours": 6250,
      "ians": 6251,
      "width": 6252,
      "powder": 6253,
      "stoff": 6254,
      "couture": 6255,
      "death": 6256,
      "zil": 6257,
      "rys": 6258,
      "million": 6259,
      "alte": 6260,
      "marth": 6261,
      "motiv": 6262,
      "slides": 6263,
      "dau": 6264,
      "egg": 6265,
      "camer": 6266,
      "progress": 6267,
      "secre": 6268,
      "onlinec": 6269,
      "jav": 6270,
      "346": 6271,
      "blick": 6272,
      "yat": 6273,
      "buck": 6274,
      "pendant": 6275,
      "buff": 6276,
      "scient": 6277,
      "grass": 6278,
      "orea": 6279,
      "rod": 6280,
      "cx": 6281,
      "intelligence": 6282,
      "trag": 6283,
      "empres": 6284,
      "uston": 6285,
      "generator": 6286,
      "datenschutzerklaerung": 6287,
      "410": 6288,
      "vere": 6289,
      "convers": 6290,
      "vb": 6291,
      "pillow": 6292,
      "johann": 6293,
      "dq": 6294,
      "keys": 6295,
      "authent": 6296,
      "dish": 6297,
      "397": 6298,
      "tpost": 6299,
      "dell": 6300,
      "suspen": 6301,
      "826": 6302,
      "wifi": 6303,
      "deng": 6304,
      "yp": 6305,
      "fisher": 6306,
      "etc": 6307,
      "mechan": 6308,
      "ducation": 6309,
      "steam": 6310,
      "thereal": 6311,
      "bek": 6312,
      "missions": 6313,
      "memory": 6314,
      "luck": 6315,
      "folder": 6316,
      "compare": 6317,
      "disclaim": 6318,
      "tie": 6319,
      "347": 6320,
      "snap": 6321,
      "iga": 6322,
      "houseof": 6323,
      "fahrzeuge": 6324,
      "azione": 6325,
      "bros": 6326,
      "jac": 6327,
      "woods": 6328,
      "verlag": 6329,
      "searcht": 6330,
      "origin": 6331,
      "hash": 6332,
      "marshall": 6333,
      "hj": 6334,
      "bea": 6335,
      "adores": 6336,
      "tampa": 6337,
      "387": 6338,
      "uba": 6339,
      "buzz": 6340,
      "operation": 6341,
      "betx": 6342,
      "saw": 6343,
      "vous": 6344,
      "hren": 6345,
      "stellung": 6346,
      "edic": 6347,
      "config": 6348,
      "oming": 6349,
      "presentation": 6350,
      "virgini": 6351,
      "ofer": 6352,
      "aboutus": 6353,
      "itude": 6354,
      "386": 6355,
      "these": 6356,
      "onde": 6357,
      "itel": 6358,
      "zione": 6359,
      "kultur": 6360,
      "omni": 6361,
      "states": 6362,
      "agne": 6363,
      "367": 6364,
      "zie": 6365,
      "peace": 6366,
      "nag": 6367,
      "liquid": 6368,
      "thail": 6369,
      "hyund": 6370,
      "lier": 6371,
      "bridal": 6372,
      "springs": 6373,
      "honor": 6374,
      "adow": 6375,
      "frage": 6376,
      "zq": 6377,
      "deutschland": 6378,
      "tph": 6379,
      "keywords": 6380,
      "quin": 6381,
      "migration": 6382,
      "lovers": 6383,
      "businesses": 6384,
      "boden": 6385,
      "almaty": 6386,
      "rav": 6387,
      "chris": 6388,
      "cao": 6389,
      "comfort": 6390,
      "matters": 6391,
      "raf": 6392,
      "rique": 6393,
      "startup": 6394,
      "scription": 6395,
      "fbc": 6396,
      "wre": 6397,
      "tourn": 6398,
      "anniversary": 6399,
      "pom": 6400,
      "lauf": 6401,
      "ebook": 6402,
      "dian": 6403,
      "nex": 6404,
      "dise": 6405,
      "zhongxin": 6406,
      "markets": 6407,
      "hed": 6408,
      "vents": 6409,
      "tion": 6410,
      "ache": 6411,
      "ode": 6412,
      "renov": 6413,
      "git": 6414,
      "idea": 6415,
      "puzz": 6416,
      "guru": 6417,
      "appe": 6418,
      "seal": 6419,
      "navy": 6420,
      "joint": 6421,
      "bum": 6422,
      "marriage": 6423,
      "reis": 6424,
      "invol": 6425,
      "rolet": 6426,
      "tecn": 6427,
      "poss": 6428,
      "bart": 6429,
      "bles": 6430,
      "seven": 6431,
      "nursery": 6432,
      "clubs": 6433,
      "fotografie": 6434,
      "quant": 6435,
      "xiang": 6436,
      "ktion": 6437,
      "bung": 6438,
      "betting": 6439,
      "rx": 6440,
      "yacht": 6441,
      "385": 6442,
      "kaf": 6443,
      "iert": 6444,
      "icals": 6445,
      "restaurants": 6446,
      "cabinet": 6447,
      "worship": 6448,
      "england": 6449,
      "izin": 6450,
      "manbetx": 6451,
      "villag": 6452,
      "whisky": 6453,
      "wb": 6454,
      "lawn": 6455,
      "disclaimer": 6456,
      "talent": 6457,
      "zb": 6458,
      "pakistan": 6459,
      "neighbor": 6460,
      "lef": 6461,
      "remote": 6462,
      "guanwangmanbetx": 6463,
      "hui": 6464,
      "thill": 6465,
      "much": 6466,
      "hybrid": 6467,
      "deposit": 6468,
      "department": 6469,
      "exter": 6470,
      "matic": 6471,
      "hamburg": 6472,
      "belt": 6473,
      "galaxy": 6474,
      "376": 6475,
      "arz": 6476,
      "answer": 6477,
      "yc": 6478,
      "prices": 6479,
      "ska": 6480,
      "refle": 6481,
      "nouve": 6482,
      "chinen": 6483,
      "indoor": 6484,
      "structure": 6485,
      "gf": 6486,
      "splay": 6487,
      "partnership": 6488,
      "ccion": 6489,
      "alco": 6490,
      "itech": 6491,
      "mega": 6492,
      "oon": 6493,
      "vegas": 6494,
      "birds": 6495,
      "sponsor": 6496,
      "356": 6497,
      "adul": 6498,
      "reservation": 6499,
      "artificial": 6500,
      "phtml": 6501,
      "fitz": 6502,
      "batter": 6503,
      "dv": 6504,
      "ande": 6505,
      "jil": 6506,
      "pics": 6507,
      "lever": 6508,
      "tof": 6509,
      "issan": 6510,
      "fontan": 6511,
      "semin": 6512,
      "inen": 6513,
      "maver": 6514,
      "2002": 6515,
      "revolution": 6516,
      "mean": 6517,
      "relat": 6518,
      "ecurity": 6519,
      "008": 6520,
      "attribute": 6521,
      "frag": 6522,
      "meg": 6523,
      "height": 6524,
      "1001": 6525,
      "alas": 6526,
      "experi": 6527,
      "energie": 6528,
      "builders": 6529,
      "mats": 6530,
      "agaz": 6531,
      "heil": 6532,
      "cogn": 6533,
      "pageno": 6534,
      "astr": 6535,
      "kia": 6536,
      "pcs": 6537,
      "flowersby": 6538,
      "1003": 6539,
      "dien": 6540,
      "qr": 6541,
      "enterprise": 6542,
      "mum": 6543,
      "alten": 6544,
      "between": 6545,
      "serve": 6546,
      "503": 6547,
      "wander": 6548,
      "productid": 6549,
      "atives": 6550,
      "269": 6551,
      "stats": 6552,
      "informationen": 6553,
      "fare": 6554,
      "ifs": 6555,
      "anten": 6556,
      "catecd": 6557,
      "fahrt": 6558,
      "recher": 6559,
      "photographer": 6560,
      "trim": 6561,
      "acar": 6562,
      "sortby": 6563,
      "irl": 6564,
      "baden": 6565,
      "painted": 6566,
      "pau": 6567,
      "iza": 6568,
      "slide": 6569,
      "handle": 6570,
      "akers": 6571,
      "pocket": 6572,
      "804": 6573,
      "lx": 6574,
      "mehr": 6575,
      "316": 6576,
      "fak": 6577,
      "jit": 6578,
      "ured": 6579,
      "cocktail": 6580,
      "357": 6581,
      "engineer": 6582,
      "athers": 6583,
      "nig": 6584,
      "nego": 6585,
      "fern": 6586,
      "phones": 6587,
      "geschen": 6588,
      "ntt": 6589,
      "etik": 6590,
      "tpr": 6591,
      "prop": 6592,
      "exten": 6593,
      "supple": 6594,
      "skir": 6595,
      "nad": 6596,
      "stones": 6597,
      "thelo": 6598,
      "ticket": 6599,
      "824": 6600,
      "gross": 6601,
      "zap": 6602,
      "atch": 6603,
      "fundra": 6604,
      "accounts": 6605,
      "lebens": 6606,
      "jw": 6607,
      "akademie": 6608,
      "tk": 6609,
      "athon": 6610,
      "ewear": 6611,
      "leys": 6612,
      "gratis": 6613,
      "273": 6614,
      "jou": 6615,
      "scen": 6616,
      "advo": 6617,
      "bars": 6618,
      "jizz": 6619,
      "charm": 6620,
      "committee": 6621,
      "heavy": 6622,
      "wholesal": 6623,
      "mers": 6624,
      "kee": 6625,
      "orte": 6626,
      "hoe": 6627,
      "ashop": 6628,
      "miami": 6629,
      "marketplace": 6630,
      "chevrolet": 6631,
      "japanese": 6632,
      "icio": 6633,
      "mittel": 6634,
      "executive": 6635,
      "iran": 6636,
      "355": 6637,
      "lawyers": 6638,
      "couple": 6639,
      "quette": 6640,
      "amazing": 6641,
      "oder": 6642,
      "pem": 6643,
      "rans": 6644,
      "nom": 6645,
      "mous": 6646,
      "enf": 6647,
      "rates": 6648,
      "dil": 6649,
      "bcber": 6650,
      "glow": 6651,
      "sold": 6652,
      "377": 6653,
      "457": 6654,
      "whiskey": 6655,
      "sheets": 6656,
      "cities": 6657,
      "anie": 6658,
      "xp": 6659,
      "immo": 6660,
      "passion": 6661,
      "halt": 6662,
      "influ": 6663,
      "formul": 6664,
      "metro": 6665,
      "director": 6666,
      "tann": 6667,
      "dentist": 6668,
      "whatsapp": 6669,
      "kis": 6670,
      "lr": 6671,
      "ensive": 6672,
      "lav": 6673,
      "kp": 6674,
      "gz": 6675,
      "sind": 6676,
      "cosmic": 6677,
      "laptop": 6678,
      "lec": 6679,
      "illon": 6680,
      "abay": 6681,
      "esi": 6682,
      "hausen": 6683,
      "northwest": 6684,
      "suite": 6685,
      "greet": 6686,
      "frauen": 6687,
      "typ": 6688,
      "crown": 6689,
      "forte": 6690,
      "diff": 6691,
      "moment": 6692,
      "340": 6693,
      "needs": 6694,
      "coal": 6695,
      "profit": 6696,
      "grove": 6697,
      "ems": 6698,
      "schw": 6699,
      "rift": 6700,
      "meat": 6701,
      "lover": 6702,
      "broker": 6703,
      "944": 6704,
      "bier": 6705,
      "glen": 6706,
      "brad": 6707,
      "hrung": 6708,
      "premier": 6709,
      "nha": 6710,
      "ucp": 6711,
      "shower": 6712,
      "219": 6713,
      "875": 6714,
      "sculpt": 6715,
      "whist": 6716,
      "emy": 6717,
      "charge": 6718,
      "750": 6719,
      "ischer": 6720,
      "thailand": 6721,
      "uta": 6722,
      "sno": 6723,
      "coule": 6724,
      "paid": 6725,
      "branch": 6726,
      "shell": 6727,
      "suspended": 6728,
      "jeans": 6729,
      "nin": 6730,
      "268": 6731,
      "tower": 6732,
      "ktor": 6733,
      "ranch": 6734,
      "gien": 6735,
      "aten": 6736,
      "vene": 6737,
      "hyundai": 6738,
      "aktion": 6739,
      "candid": 6740,
      "salt": 6741,
      "mono": 6742,
      "nails": 6743,
      "456": 6744,
      "acks": 6745,
      "survi": 6746,
      "cope": 6747,
      "agi": 6748,
      "pine": 6749,
      "notre": 6750,
      "joshu": 6751,
      "different": 6752,
      "caps": 6753,
      "wilder": 6754,
      "neuro": 6755,
      "jesus": 6756,
      "835": 6757,
      "cod": 6758,
      "changes": 6759,
      "313": 6760,
      "viewforum": 6761,
      "hz": 6762,
      "formular": 6763,
      "const": 6764,
      "814": 6765,
      "arrang": 6766,
      "1002": 6767,
      "edical": 6768,
      "/&": 6769,
      "vos": 6770,
      "hae": 6771,
      "espan": 6772,
      "umes": 6773,
      "fields": 6774,
      "formacion": 6775,
      "tutor": 6776,
      "flexi": 6777,
      "essentials": 6778,
      "jub": 6779,
      "pest": 6780,
      "gourmet": 6781,
      "bob": 6782,
      "accident": 6783,
      "plugin": 6784,
      "pale": 6785,
      "maya": 6786,
      "iw": 6787,
      "837": 6788,
      "886": 6789,
      "selected": 6790,
      "lunch": 6791,
      "tig": 6792,
      "maps": 6793,
      "bakery": 6794,
      "rehab": 6795,
      "produk": 6796,
      "abil": 6797,
      "matter": 6798,
      "logistics": 6799,
      "onn": 6800,
      "fiber": 6801,
      "jump": 6802,
      "sons": 6803,
      "nick": 6804,
      "backpack": 6805,
      "cet": 6806,
      "farms": 6807,
      "piano": 6808,
      "george": 6809,
      "everything": 6810,
      "lives": 6811,
      "sector": 6812,
      "cinema": 6813,
      "uh": 6814,
      "chs": 6815,
      "southern": 6816,
      "indo": 6817,
      "lement": 6818,
      "ying": 6819,
      "usch": 6820,
      "reve": 6821,
      "847": 6822,
      "articleid": 6823,
      "rep": 6824,
      "xb": 6825,
      "=&&": 6826,
      "301": 6827,
      "dich": 6828,
      "architect": 6829,
      "925": 6830,
      "kunden": 6831,
      "rade": 6832,
      "mf": 6833,
      "polish": 6834,
      "players": 6835,
      "977": 6836,
      "oman": 6837,
      "authors": 6838,
      "rr": 6839,
      "omet": 6840,
      "zhen": 6841,
      "navi": 6842,
      "arena": 6843,
      "836": 6844,
      "izen": 6845,
      "doku": 6846,
      "885": 6847,
      "yas": 6848,
      "government": 6849,
      "circu": 6850,
      "depot": 6851,
      "idos": 6852,
      "wher": 6853,
      "420": 6854,
      "cci": 6855,
      "assistant": 6856,
      "efe": 6857,
      "bever": 6858,
      "00000000": 6859,
      "workers": 6860,
      "enta": 6861,
      "aliment": 6862,
      "oday": 6863,
      "gradu": 6864,
      "tong": 6865,
      "handel": 6866,
      "familien": 6867,
      "noir": 6868,
      "iverse": 6869,
      "gae": 6870,
      "orders": 6871,
      "cabin": 6872,
      "prayer": 6873,
      "jackson": 6874,
      "504": 6875,
      "madrid": 6876,
      "burgh": 6877,
      "anime": 6878,
      "mirror": 6879,
      "retire": 6880,
      "african": 6881,
      "abis": 6882,
      "shen": 6883,
      "tings": 6884,
      "ej": 6885,
      "iot": 6886,
      "846": 6887,
      "nai": 6888,
      "xia": 6889,
      "262": 6890,
      "dup": 6891,
      "schen": 6892,
      "oka": 6893,
      "architektur": 6894,
      "weiter": 6895,
      "organiz": 6896,
      "485": 6897,
      "kill": 6898,
      "tav": 6899,
      "ingredi": 6900,
      "autor": 6901,
      "wooden": 6902,
      "sider": 6903,
      "ideal": 6904,
      "325": 6905,
      "amber": 6906,
      "worl": 6907,
      "athy": 6908,
      "kalender": 6909,
      "houston": 6910,
      "bound": 6911,
      "shaw": 6912,
      "lesbian": 6913,
      "hoa": 6914,
      "forthe": 6915,
      "447": 6916,
      "referral": 6917,
      "voyage": 6918,
      "scholar": 6919,
      "improve": 6920,
      "publication": 6921,
      "escorts": 6922,
      "marie": 6923,
      "parks": 6924,
      "flux": 6925,
      "meal": 6926,
      "recomm": 6927,
      "quotes": 6928,
      "utz": 6929,
      "assen": 6930,
      "regional": 6931,
      "nub": 6932,
      "wins": 6933,
      "chm": 6934,
      "311": 6935,
      "adjust": 6936,
      "279": 6937,
      "bali": 6938,
      "femme": 6939,
      "botan": 6940,
      "steller": 6941,
      "otic": 6942,
      "wux": 6943,
      "zam": 6944,
      "onthe": 6945,
      "830": 6946,
      "218": 6947,
      "schlagwort": 6948,
      "opportunities": 6949,
      "etten": 6950,
      "lower": 6951,
      "electrical": 6952,
      "volunteer": 6953,
      "irie": 6954,
      "herz": 6955,
      "vacation": 6956,
      "etiqueta": 6957,
      "particip": 6958,
      "sag": 6959,
      "manchester": 6960,
      "female": 6961,
      "publishing": 6962,
      "887": 6963,
      "neighborhood": 6964,
      "bod": 6965,
      "doll": 6966,
      "507": 6967,
      "1500": 6968,
      "pert": 6969,
      "dungen": 6970,
      "against": 6971,
      "pablo": 6972,
      "shang": 6973,
      "jv": 6974,
      "fragr": 6975,
      "moun": 6976,
      "344": 6977,
      "erich": 6978,
      "ankauf": 6979,
      "gera": 6980,
      "toi": 6981,
      "ptype": 6982,
      "sted": 6983,
      "myst": 6984,
      "violet": 6985,
      "tate": 6986,
      "mania": 6987,
      "arium": 6988,
      "pher": 6989,
      "ott": 6990,
      "dok": 6991,
      "enden": 6992,
      "monde": 6993,
      "elt": 6994,
      "afd": 6995,
      "bug": 6996,
      "bae": 6997,
      "nox": 6998,
      "oid": 6999,
      "civil": 7000,
      "fot": 7001,
      "-.": 7002,
      "glossary": 7003,
      "maria": 7004,
      "symp": 7005,
      "microsoft": 7006,
      "brass": 7007,
      "pati": 7008,
      "agroup": 7009,
      "wax": 7010,
      "dealer": 7011,
      "funding": 7012,
      "997": 7013,
      "styl": 7014,
      "cach": 7015,
      "unique": 7016,
      "lecture": 7017,
      "worlds": 7018,
      "lari": 7019,
      "zixun": 7020,
      "themen": 7021,
      "choos": 7022,
      "uru": 7023,
      "miet": 7024,
      "descri": 7025,
      "destinations": 7026,
      "anas": 7027,
      "937": 7028,
      "facial": 7029,
      "proto": 7030,
      "845": 7031,
      "male": 7032,
      "posting": 7033,
      "estates": 7034,
      "011": 7035,
      "raining": 7036,
      "vero": 7037,
      "278": 7038,
      "flores": 7039,
      "enews": 7040,
      "direction": 7041,
      "transl": 7042,
      "314": 7043,
      "jess": 7044,
      "submit": 7045,
      "ths": 7046,
      "809": 7047,
      "312": 7048,
      "pec": 7049,
      "swis": 7050,
      "medizin": 7051,
      "couver": 7052,
      "porter": 7053,
      "tus": 7054,
      "fried": 7055,
      "votre": 7056,
      "angle": 7057,
      "ikan": 7058,
      "curs": 7059,
      "urb": 7060,
      "oyun": 7061,
      "996": 7062,
      "fiz": 7063,
      "franch": 7064,
      "qs": 7065,
      "grant": 7066,
      "buer": 7067,
      "jahr": 7068,
      "icit": 7069,
      "essel": 7070,
      "cker": 7071,
      "islam": 7072,
      "323": 7073,
      "css": 7074,
      "gnu": 7075,
      "germany": 7076,
      "endo": 7077,
      "wife": 7078,
      "paragon": 7079,
      "506": 7080,
      "automatic": 7081,
      "porte": 7082,
      "wiz": 7083,
      "bone": 7084,
      "jid": 7085,
      "dul": 7086,
      "idades": 7087,
      "tcs": 7088,
      "thr": 7089,
      "802": 7090,
      "itary": 7091,
      "agle": 7092,
      "kings": 7093,
      "many": 7094,
      "sla": 7095,
      "stl": 7096,
      "966": 7097,
      "qing": 7098,
      "comes": 7099,
      "liver": 7100,
      "cargo": 7101,
      "ulder": 7102,
      "untuk": 7103,
      "rech": 7104,
      "catholic": 7105,
      "cred": 7106,
      "draw": 7107,
      "sne": 7108,
      "rak": 7109,
      "toms": 7110,
      "uring": 7111,
      "numbers": 7112,
      "spain": 7113,
      "understanding": 7114,
      "vital": 7115,
      "818": 7116,
      "009": 7117,
      "cono": 7118,
      "vf": 7119,
      "haven": 7120,
      "tokyo": 7121,
      "957": 7122,
      "quip": 7123,
      "hide": 7124,
      "inson": 7125,
      "cuisine": 7126,
      "mec": 7127,
      "styles": 7128,
      "behind": 7129,
      "877": 7130,
      "extended": 7131,
      "trees": 7132,
      "ools": 7133,
      "roller": 7134,
      "oire": 7135,
      "hobby": 7136,
      "marvel": 7137,
      "936": 7138,
      "machinery": 7139,
      "divor": 7140,
      "cec": 7141,
      "hell": 7142,
      "lng": 7143,
      "oles": 7144,
      "oter": 7145,
      "phpbb": 7146,
      "819": 7147,
      "skill": 7148,
      "inks": 7149,
      "aught": 7150,
      "renew": 7151,
      "rn": 7152,
      "ieren": 7153,
      "viz": 7154,
      "alestate": 7155,
      "550": 7156,
      "curso": 7157,
      "arbeiten": 7158,
      "ensions": 7159,
      "rainbow": 7160,
      "webinar": 7161,
      "articlelist": 7162,
      "ivity": 7163,
      "ggle": 7164,
      "gemeinde": 7165,
      "mw": 7166,
      "shore": 7167,
      "authentic": 7168,
      "mato": 7169,
      "chiropractic": 7170,
      "kyoto": 7171,
      "bie": 7172,
      "klin": 7173,
      "anger": 7174,
      "funeralhome": 7175,
      "261": 7176,
      "leucht": 7177,
      "asch": 7178,
      "cursos": 7179,
      "bands": 7180,
      "ipe": 7181,
      "446": 7182,
      "started": 7183,
      "wirt": 7184,
      "duo": 7185,
      "gene": 7186,
      "craw": 7187,
      "climate": 7188,
      "thelittle": 7189,
      "fic": 7190,
      "brew": 7191,
      "ecommerce": 7192,
      "allen": 7193,
      "akh": 7194,
      "colorado": 7195,
      "rop": 7196,
      "angeles": 7197,
      "455": 7198,
      "uto": 7199,
      "sheng": 7200,
      "390": 7201,
      "gros": 7202,
      "facilities": 7203,
      "battle": 7204,
      "monitor": 7205,
      "364": 7206,
      "brasil": 7207,
      "casual": 7208,
      "locksmith": 7209,
      "baeckerei": 7210,
      "alem": 7211,
      "asv": 7212,
      "andra": 7213,
      "ified": 7214,
      "maxi": 7215,
      "tourism": 7216,
      "lostpassword": 7217,
      "alli": 7218,
      "zte": 7219,
      "ballo": 7220,
      "ream": 7221,
      "mood": 7222,
      "crime": 7223,
      "transform": 7224,
      "reich": 7225,
      "wolf": 7226,
      "random": 7227,
      "930": 7228,
      "aim": 7229,
      "834": 7230,
      "vap": 7231,
      "noi": 7232,
      "bah": 7233,
      "apparte": 7234,
      "867": 7235,
      "rem": 7236,
      "ock": 7237,
      "acing": 7238,
      "hex": 7239,
      "saison": 7240,
      "kot": 7241,
      "entreprene": 7242,
      "jis": 7243,
      "nogo": 7244,
      "optic": 7245,
      "palace": 7246,
      "feuer": 7247,
      "ifen": 7248,
      "scan": 7249,
      "etech": 7250,
      "iku": 7251,
      "platz": 7252,
      "555": 7253,
      "rf": 7254,
      "conver": 7255,
      "exp": 7256,
      "courtney": 7257,
      "avoid": 7258,
      "achie": 7259,
      "wah": 7260,
      "444": 7261,
      "stift": 7262,
      "boston": 7263,
      "292": 7264,
      "gues": 7265,
      "ebu": 7266,
      "afford": 7267,
      "certification": 7268,
      "parenting": 7269,
      "suspendedpage": 7270,
      "ril": 7271,
      "strap": 7272,
      "850": 7273,
      "cherry": 7274,
      "950": 7275,
      "382": 7276,
      "pip": 7277,
      "atlas": 7278,
      "==": 7279,
      "911": 7280,
      "martine": 7281,
      "mls": 7282,
      "nya": 7283,
      "metho": 7284,
      "hunt": 7285,
      "util": 7286,
      "disney": 7287,
      "itt": 7288,
      "945": 7289,
      "gren": 7290,
      "812": 7291,
      "cau": 7292,
      "websites": 7293,
      "joes": 7294,
      "answers": 7295,
      "cig": 7296,
      "sic": 7297,
      "moebel": 7298,
      "threads": 7299,
      "estra": 7300,
      "agric": 7301,
      "cola": 7302,
      "1010": 7303,
      "pv": 7304,
      "chim": 7305,
      "yh": 7306,
      "arden": 7307,
      "truth": 7308,
      "803": 7309,
      "440": 7310,
      "onec": 7311,
      "pent": 7312,
      "forge": 7313,
      "mere": 7314,
      "hawai": 7315,
      "808": 7316,
      "minds": 7317,
      "369": 7318,
      "gis": 7319,
      "export": 7320,
      "frequ": 7321,
      "yam": 7322,
      "qiu": 7323,
      "communities": 7324,
      "cache": 7325,
      "deluxe": 7326,
      "avent": 7327,
      "flix": 7328,
      "invit": 7329,
      "schn": 7330,
      "chronic": 7331,
      "npo": 7332,
      "marit": 7333,
      "dod": 7334,
      "nq": 7335,
      "alm": 7336,
      "beha": 7337,
      "20250": 7338,
      "330": 7339,
      "919": 7340,
      "paintings": 7341,
      "geber": 7342,
      "yourself": 7343,
      "jog": 7344,
      "haz": 7345,
      "beginners": 7346,
      "warehouse": 7347,
      "thal": 7348,
      "startseite": 7349,
      "acity": 7350,
      "zv": 7351,
      "sak": 7352,
      "cken": 7353,
      "compliance": 7354,
      "uppli": 7355,
      "atar": 7356,
      "accessibility": 7357,
      "warm": 7358,
      "918": 7359,
      "electronics": 7360,
      "jane": 7361,
      "kick": 7362,
      "individual": 7363,
      "wireless": 7364,
      "kaw": 7365,
      "sommer": 7366,
      "2520": 7367,
      "wheat": 7368,
      "jardin": 7369,
      "prep": 7370,
      "ceramic": 7371,
      "itive": 7372,
      "813": 7373,
      "857": 7374,
      "ewe": 7375,
      "cycles": 7376,
      "igu": 7377,
      "801": 7378,
      "counselling": 7379,
      "956": 7380,
      "947": 7381,
      "027": 7382,
      "geschichte": 7383,
      "411": 7384,
      "major": 7385,
      "instrument": 7386,
      "regul": 7387,
      "ceo": 7388,
      "vera": 7389,
      "capt": 7390,
      "editions": 7391,
      "ismus": 7392,
      "relief": 7393,
      "oll": 7394,
      "giving": 7395,
      "tov": 7396,
      "pression": 7397,
      "universal": 7398,
      "anli": 7399,
      "995": 7400,
      "sterling": 7401,
      "hearing": 7402,
      "loop": 7403,
      "946": 7404,
      "meta": 7405,
      "kopie": 7406,
      "inf": 7407,
      "spiritual": 7408,
      "bond": 7409,
      "tot": 7410,
      "gres": 7411,
      "tout": 7412,
      "marken": 7413,
      "chairs": 7414,
      "arian": 7415,
      "anha": 7416,
      "leder": 7417,
      ",%": 7418,
      "announcements": 7419,
      "vors": 7420,
      "specials": 7421,
      "lgb": 7422,
      "uster": 7423,
      "uu": 7424,
      "chate": 7425,
      "paramo": 7426,
      "linic": 7427,
      "909": 7428,
      "philoso": 7429,
      "emer": 7430,
      "middle": 7431,
      "homem": 7432,
      "consultation": 7433,
      "sip": 7434,
      "papel": 7435,
      "sense": 7436,
      "876": 7437,
      "wise": 7438,
      "fbbs": 7439,
      "477": 7440,
      "idi": 7441,
      "verkauf": 7442,
      "trailer": 7443,
      "eblog": 7444,
      "logic": 7445,
      "challeng": 7446,
      "rob": 7447,
      "aesthet": 7448,
      "uda": 7449,
      "aty": 7450,
      "contactus": 7451,
      "kreis": 7452,
      "contri": 7453,
      "567": 7454,
      "acre": 7455,
      "pipe": 7456,
      "haber": 7457,
      "selection": 7458,
      "austin": 7459,
      "lion": 7460,
      "rg": 7461,
      "while": 7462,
      "trainer": 7463,
      "forget": 7464,
      "ibles": 7465,
      "parameters": 7466,
      "due": 7467,
      "never": 7468,
      "855": 7469,
      "976": 7470,
      "charles": 7471,
      "mama": 7472,
      "thegreen": 7473,
      "distribution": 7474,
      "meter": 7475,
      "kosten": 7476,
      "840": 7477,
      "close": 7478,
      "aviation": 7479,
      "dach": 7480,
      "wai": 7481,
      "promotions": 7482,
      "fred": 7483,
      "hygien": 7484,
      "columns": 7485,
      "employee": 7486,
      "arios": 7487,
      "president": 7488,
      "tcm": 7489,
      "anos": 7490,
      "pressure": 7491,
      "leh": 7492,
      "developer": 7493,
      "kang": 7494,
      "recommend": 7495,
      "326": 7496,
      "967": 7497,
      "elek": 7498,
      "keeping": 7499,
      "2001": 7500,
      "opus": 7501,
      "466": 7502,
      "justice": 7503,
      "alternative": 7504,
      "seattle": 7505,
      "treatments": 7506,
      "374": 7507,
      "herren": 7508,
      "gau": 7509,
      "sek": 7510,
      "finding": 7511,
      "casinos": 7512,
      "blocks": 7513,
      "wag": 7514,
      "urt": 7515,
      "slow": 7516,
      "xq": 7517,
      "tees": 7518,
      "estic": 7519,
      "icherung": 7520,
      "ders": 7521,
      "returns": 7522,
      "avia": 7523,
      "terra": 7524,
      "datab": 7525,
      "aed": 7526,
      "tact": 7527,
      "317": 7528,
      "salad": 7529,
      "customers": 7530,
      "nyy": 7531,
      "enjoy": 7532,
      "955": 7533,
      "period": 7534,
      "etti": 7535,
      "servicios": 7536,
      "fondation": 7537,
      "vem": 7538,
      "comics": 7539,
      "dated": 7540,
      "866": 7541,
      "della": 7542,
      "geneve": 7543,
      "gast": 7544,
      "response": 7545,
      "satur": 7546,
      "dvd": 7547,
      "candles": 7548,
      "looking": 7549,
      "could": 7550,
      "9999": 7551,
      "mith": 7552,
      "lack": 7553,
      "vz": 7554,
      "infra": 7555,
      "844": 7556,
      "muck": 7557,
      "agri": 7558,
      "ayur": 7559,
      "bench": 7560,
      "hunter": 7561,
      "gow": 7562,
      "olive": 7563,
      "blues": 7564,
      "sko": 7565,
      "lectures": 7566,
      "basics": 7567,
      "272": 7568,
      "eni": 7569,
      "elev": 7570,
      "tik": 7571,
      "silicon": 7572,
      "zep": 7573,
      "935": 7574,
      "volume": 7575,
      "owner": 7576,
      "adidas": 7577,
      "parishcouncil": 7578,
      "ministries": 7579,
      "gubun": 7580,
      "hunting": 7581,
      "cem": 7582,
      "wap": 7583,
      "ugal": 7584,
      "dashboard": 7585,
      "teal": 7586,
      "bauer": 7587,
      "berichte": 7588,
      "thepo": 7589,
      "such": 7590,
      "370": 7591,
      "togel": 7592,
      "960": 7593,
      "sud": 7594,
      "aby": 7595,
      "furt": 7596,
      "czo": 7597,
      "dreams": 7598,
      "encer": 7599,
      "856": 7600,
      "fuss": 7601,
      "estone": 7602,
      "grp": 7603,
      "flora": 7604,
      "atlan": 7605,
      "phu": 7606,
      "lite": 7607,
      "specialist": 7608,
      "athletics": 7609,
      "kue": 7610,
      "zion": 7611,
      "ased": 7612,
      "feet": 7613,
      "abstract": 7614,
      "opti": 7615,
      "hyper": 7616,
      "811": 7617,
      "rimon": 7618,
      "ligne": 7619,
      ".%": 7620,
      "sonlist": 7621,
      "inspired": 7622,
      "exclusive": 7623,
      "fantasy": 7624,
      "_-_": 7625,
      "observ": 7626,
      "printed": 7627,
      "makers": 7628,
      "manage": 7629,
      "costar": 7630,
      "xz": 7631,
      "meditation": 7632,
      "nacht": 7633,
      "dus": 7634,
      "iris": 7635,
      "habi": 7636,
      "score": 7637,
      "akan": 7638,
      "354": 7639,
      "autos": 7640,
      "wait": 7641,
      "doctors": 7642,
      "pard": 7643,
      "jab": 7644,
      "hose": 7645,
      "1005": 7646,
      "hands": 7647,
      "mund": 7648,
      "speakers": 7649,
      "license": 7650,
      "lexus": 7651,
      "calculator": 7652,
      "324": 7653,
      "dab": 7654,
      "franca": 7655,
      "965": 7656,
      "tuc": 7657,
      "actor": 7658,
      "heaven": 7659,
      "static": 7660,
      "bola": 7661,
      "compo": 7662,
      "portraits": 7663,
      "traffic": 7664,
      "andrea": 7665,
      "cua": 7666,
      "acup": 7667,
      "floors": 7668,
      "arketing": 7669,
      "989": 7670,
      "choosing": 7671,
      "aute": 7672,
      "appointment": 7673,
      "ingo": 7674,
      "layer": 7675,
      "hann": 7676,
      "xavi": 7677,
      "advisors": 7678,
      "kad": 7679,
      "forme": 7680,
      "___": 7681,
      "goodsno": 7682,
      "dems": 7683,
      "encing": 7684,
      "portable": 7685,
      "whisper": 7686,
      "amily": 7687,
      "gom": 7688,
      "mah": 7689,
      "sexual": 7690,
      "wyn": 7691,
      "apar": 7692,
      "paras": 7693,
      "cnc": 7694,
      "ontario": 7695,
      "nev": 7696,
      "520": 7697,
      "soup": 7698,
      "jeep": 7699,
      "gambling": 7700,
      "wim": 7701,
      "monday": 7702,
      "arning": 7703,
      "903": 7704,
      "atech": 7705,
      "acional": 7706,
      "digit": 7707,
      "beru": 7708,
      "jong": 7709,
      "involved": 7710,
      "oir": 7711,
      "eless": 7712,
      "mentions": 7713,
      "creatives": 7714,
      "eliz": 7715,
      "were": 7716,
      "toggle": 7717,
      "thermal": 7718,
      "actions": 7719,
      "copie": 7720,
      "wies": 7721,
      "opinion": 7722,
      "peru": 7723,
      "degre": 7724,
      "peak": 7725,
      "schi": 7726,
      "formations": 7727,
      "radi": 7728,
      "hf": 7729,
      "apore": 7730,
      "odes": 7731,
      "buero": 7732,
      "mitglieder": 7733,
      "raine": 7734,
      "syl": 7735,
      "445": 7736,
      "etal": 7737,
      "complex": 7738,
      "cay": 7739,
      "beds": 7740,
      "rz": 7741,
      "betrieb": 7742,
      "organisation": 7743,
      "bracelets": 7744,
      "865": 7745,
      "401": 7746,
      "lesli": 7747,
      "adesign": 7748,
      "certificate": 7749,
      "434": 7750,
      "feder": 7751,
      "families": 7752,
      "ipad": 7753,
      "brist": 7754,
      "leop": 7755,
      "integration": 7756,
      "awaren": 7757,
      "thon": 7758,
      "components": 7759,
      "boom": 7760,
      "uty": 7761,
      "trin": 7762,
      "vender": 7763,
      "ystems": 7764,
      "consider": 7765,
      "zin": 7766,
      "genre": 7767,
      "jang": 7768,
      "emi": 7769,
      "clay": 7770,
      "independent": 7771,
      "printer": 7772,
      "tutorial": 7773,
      "rov": 7774,
      "lep": 7775,
      "expect": 7776,
      "qc": 7777,
      "emon": 7778,
      "manufacturing": 7779,
      "tent": 7780,
      "dynamic": 7781,
      "cine": 7782,
      "nk": 7783,
      "investor": 7784,
      "compr": 7785,
      "unk": 7786,
      "975": 7787,
      "fiction": 7788,
      "bring": 7789,
      "crash": 7790,
      "lawfirm": 7791,
      "sot": 7792,
      "glam": 7793,
      "eworld": 7794,
      "flist": 7795,
      "poo": 7796,
      "excell": 7797,
      "legales": 7798,
      "architects": 7799,
      "awareness": 7800,
      "resist": 7801,
      "alar": 7802,
      "afri": 7803,
      "keiten": 7804,
      "klein": 7805,
      "schla": 7806,
      "legends": 7807,
      "palmer": 7808,
      "zuerich": 7809,
      "effective": 7810,
      "eyes": 7811,
      "phoenix": 7812,
      "yak": 7813,
      "spac": 7814,
      "assessment": 7815,
      "illas": 7816,
      "030": 7817,
      "460": 7818,
      "antik": 7819,
      "temporary": 7820,
      "ewell": 7821,
      "omn": 7822,
      "467": 7823,
      "pj": 7824,
      "isha": 7825,
      "thre": 7826,
      "delete": 7827,
      "auctions": 7828,
      "iji": 7829,
      "background": 7830,
      "nort": 7831,
      "ipal": 7832,
      "centro": 7833,
      "rescue": 7834,
      "crane": 7835,
      "fos": 7836,
      "maverick": 7837,
      "guild": 7838,
      "gx": 7839,
      "566": 7840,
      "gebra": 7841,
      "ota": 7842,
      "sans": 7843,
      "klei": 7844,
      "atan": 7845,
      "consultants": 7846,
      "940": 7847,
      "valve": 7848,
      "skincare": 7849,
      "10000": 7850,
      "omega": 7851,
      "anmeldung": 7852,
      "embre": 7853,
      "dura": 7854,
      "orios": 7855,
      "ondon": 7856,
      "hnacht": 7857,
      "tified": 7858,
      "hats": 7859,
      "fmyshop": 7860,
      "container": 7861,
      "muenchen": 7862,
      "lash": 7863,
      "pist": 7864,
      "annon": 7865,
      "zoo": 7866,
      "321": 7867,
      "cort": 7868,
      "werkstatt": 7869,
      "606": 7870,
      "vendor": 7871,
      "jus": 7872,
      "271": 7873,
      "gap": 7874,
      "475": 7875,
      "ancer": 7876,
      "faire": 7877,
      "moi": 7878,
      "actu": 7879,
      "gpt": 7880,
      "adler": 7881,
      "exercise": 7882,
      "901": 7883,
      "broch": 7884,
      "maxx": 7885,
      "emart": 7886,
      "facility": 7887,
      "zha": 7888,
      "hos": 7889,
      "gypt": 7890,
      "vk": 7891,
      "freel": 7892,
      "vanie": 7893,
      "chez": 7894,
      "upcoming": 7895,
      "storm": 7896,
      "strength": 7897,
      "slip": 7898,
      "approach": 7899,
      "gesundheit": 7900,
      "thed": 7901,
      "occasion": 7902,
      "sante": 7903,
      "ministry": 7904,
      "straw": 7905,
      "flan": 7906,
      "amy": 7907,
      "orient": 7908,
      "sweatshirt": 7909,
      "enm": 7910,
      "european": 7911,
      "retirement": 7912,
      "ception": 7913,
      "communications": 7914,
      "leton": 7915,
      "402": 7916,
      "recherche": 7917,
      "565": 7918,
      "vita": 7919,
      "brick": 7920,
      "elen": 7921,
      "coln": 7922,
      "situs": 7923,
      "environment": 7924,
      "lof": 7925,
      "blend": 7926,
      "dah": 7927,
      "created": 7928,
      "anhaenger": 7929,
      "alban": 7930,
      "glasses": 7931,
      "shim": 7932,
      "korean": 7933,
      "novosti": 7934,
      "phon": 7935,
      "viewer": 7936,
      "spanish": 7937,
      "crisis": 7938,
      "finanz": 7939,
      "joyful": 7940,
      "computers": 7941,
      "efer": 7942,
      "wk": 7943,
      "temps": 7944,
      "viagra": 7945,
      "veranstaltung": 7946,
      "1007": 7947,
      "pallet": 7948,
      "poli": 7949,
      "fotografia": 7950,
      "476": 7951,
      "nggallery": 7952,
      "flood": 7953,
      "rou": 7954,
      "couples": 7955,
      "yar": 7956,
      "wallet": 7957,
      "nab": 7958,
      "etwork": 7959,
      "subscri": 7960,
      "aaa": 7961,
      "465": 7962,
      "makes": 7963,
      "weihnacht": 7964,
      "diagnost": 7965,
      "swit": 7966,
      "pilates": 7967,
      "ersatz": 7968,
      "tipps": 7969,
      "vious": 7970,
      "pole": 7971,
      "tram": 7972,
      "paro": 7973,
      "iqu": 7974,
      "legg": 7975,
      "juice": 7976,
      "therape": 7977,
      "jahre": 7978,
      "evolution": 7979,
      "ichi": 7980,
      "walking": 7981,
      "alumni": 7982,
      "purchase": 7983,
      "zan": 7984,
      "liga": 7985,
      "diesel": 7986,
      "protein": 7987,
      "zzz": 7988,
      "holist": 7989,
      "afa": 7990,
      "wrest": 7991,
      "obje": 7992,
      "character": 7993,
      "duty": 7994,
      "wissen": 7995,
      "kraft": 7996,
      "glu": 7997,
      "orang": 7998,
      "829": 7999,
      "beta": 8000,
      "tato": 8001,
      "349": 8002,
      "jahres": 8003,
      "allery": 8004,
      "usd": 8005,
      "sessions": 8006,
      "990": 8007,
      "investig": 8008,
      "successful": 8009,
      "duck": 8010,
      "kev": 8011,
      "extre": 8012,
      "902": 8013,
      "pilot": 8014,
      "waste": 8015,
      "related": 8016,
      "sier": 8017,
      "edel": 8018,
      "updated": 8019,
      "tf": 8020,
      "tara": 8021,
      "professionals": 8022,
      "998": 8023,
      "esen": 8024,
      "anka": 8025,
      "lein": 8026,
      "steuer": 8027,
      "lington": 8028,
      "828": 8029,
      "papa": 8030,
      "gestion": 8031,
      "parc": 8032,
      "338": 8033,
      "lotte": 8034,
      "kamp": 8035,
      "stof": 8036,
      "isations": 8037,
      "bent": 8038,
      "stret": 8039,
      "thouse": 8040,
      "herbal": 8041,
      "556": 8042,
      "anwalt": 8043,
      "497": 8044,
      "pande": 8045,
      "cornwall": 8046,
      "crescent": 8047,
      "handy": 8048,
      "sht": 8049,
      "inser": 8050,
      "grafi": 8051,
      "statist": 8052,
      "repairs": 8053,
      "monster": 8054,
      "martial": 8055,
      "supplier": 8056,
      "twitter": 8057,
      "electro": 8058,
      "folios": 8059,
      "kiss": 8060,
      "moor": 8061,
      "diabet": 8062,
      "eweb": 8063,
      "thinking": 8064,
      "leban": 8065,
      "823": 8066,
      "oku": 8067,
      "politik": 8068,
      "emar": 8069,
      "transpar": 8070,
      "wanbo": 8071,
      "onlineshop": 8072,
      "cams": 8073,
      "peng": 8074,
      "xh": 8075,
      "sms": 8076,
      "verband": 8077,
      "arf": 8078,
      "vul": 8079,
      "chest": 8080,
      "announces": 8081,
      "loud": 8082,
      "beit": 8083,
      "kitch": 8084,
      "seeds": 8085,
      "confirm": 8086,
      "karriere": 8087,
      "carto": 8088,
      "quarter": 8089,
      "954": 8090,
      "optical": 8091,
      "schl": 8092,
      "problem": 8093,
      "jal": 8094,
      "congress": 8095,
      "commission": 8096,
      "depth": 8097,
      "anders": 8098,
      "ifer": 8099,
      "planner": 8100,
      "poetry": 8101,
      "soph": 8102,
      "ksi": 8103,
      "eclub": 8104,
      "kingdom": 8105,
      "clinical": 8106,
      "mejor": 8107,
      "stickers": 8108,
      "uga": 8109,
      "anto": 8110,
      "copia": 8111,
      "hydra": 8112,
      "saturday": 8113,
      "thor": 8114,
      "omg": 8115,
      "hidden": 8116,
      "patients": 8117,
      "stav": 8118,
      "collar": 8119,
      "zheng": 8120,
      "frames": 8121,
      "bold": 8122,
      "brd": 8123,
      "resume": 8124,
      "iac": 8125,
      "kleidung": 8126,
      "nuk": 8127,
      "flyer": 8128,
      "fountain": 8129,
      "opera": 8130,
      "udio": 8131,
      "secrets": 8132,
      "oceans": 8133,
      "joomla": 8134,
      "relig": 8135,
      "schne": 8136,
      "obituary": 8137,
      "army": 8138,
      "matern": 8139,
      "cier": 8140,
      "dao": 8141,
      "encies": 8142,
      "lk": 8143,
      "quis": 8144,
      "nice": 8145,
      "volk": 8146,
      "memor": 8147,
      "cosplay": 8148,
      "lehr": 8149,
      "uper": 8150,
      "menus": 8151,
      "rale": 8152,
      "tasteof": 8153,
      "889": 8154,
      "antage": 8155,
      "bett": 8156,
      "uncategorised": 8157,
      "arzt": 8158,
      "cto": 8159,
      "arta": 8160,
      "parag": 8161,
      "aving": 8162,
      "etta": 8163,
      "otel": 8164,
      "drinks": 8165,
      "sofa": 8166,
      "shooting": 8167,
      "infant": 8168,
      "rund": 8169,
      "logical": 8170,
      "submission": 8171,
      "brig": 8172,
      "cush": 8173,
      "problems": 8174,
      "bwg": 8175,
      "mant": 8176,
      "disease": 8177,
      "dock": 8178,
      "purpose": 8179,
      "coc": 8180,
      "oracle": 8181,
      "rotary": 8182,
      "wanboguanwangmanbetx": 8183,
      "auer": 8184,
      "illi": 8185,
      "done": 8186,
      "delta": 8187,
      "instant": 8188,
      "jolly": 8189,
      "emat": 8190,
      "consultant": 8191
    },
    "merges": [
      [
        "c",
        "o"
      ],
      [
        "w",
        "w"
      ],
      [
        "h",
        "t"
      ],
      [
        "t",
        "p"
      ],
      [
        "ht",
        "tp"
      ],
      [
        "/",
        "/"
      ],
      [
        ":",
        "//"
      ],
      [
        "co",
        "m"
      ],
      [
        "i",
        "n"
      ],
      [
        "e",
        "r"
      ],
      [
        "http",
        "s"
      ],
      [
        "ww",
        "w"
      ],
      [
        "o",
        "r"
      ],
      [
        "e",
        "n"
      ],
      [
        "a",
        "r"
      ],
      [
        "e",
        "s"
      ],
      [
        "a",
        "n"
      ],
      [
        "o",
        "n"
      ],
      [
        "a",
        "t"
      ],
      [
        "a",
        "l"
      ],
      [
        "c",
        "h"
      ],
      [
        "d",
        "e"
      ],
      [
        "s",
        "t"
      ],
      [
        "r",
        "o"
      ],
      [
        "l",
        "e"
      ],
      [
        "c",
        "t"
      ],
      [
        "r",
        "e"
      ],
      [
        "i",
        "t"
      ],
      [
        "a",
        "g"
      ],
      [
        "2",
        "0"
      ],
      [
        "i",
        "c"
      ],
      [
        "a",
        "s"
      ],
      [
        "p",
        "ro"
      ],
      [
        "t",
        "h"
      ],
      [
        "i",
        "l"
      ],
      [
        "d",
        "u"
      ],
      [
        "l",
        "o"
      ],
      [
        "in",
        "g"
      ],
      [
        "i",
        "on"
      ],
      [
        "i",
        "d"
      ],
      [
        "e",
        "l"
      ],
      [
        "en",
        "t"
      ],
      [
        "a",
        "m"
      ],
      [
        "ht",
        "m"
      ],
      [
        "h",
        "o"
      ],
      [
        "i",
        "s"
      ],
      [
        "u",
        "r"
      ],
      [
        "htm",
        "l"
      ],
      [
        "u",
        "n"
      ],
      [
        "e",
        "t"
      ],
      [
        "pro",
        "du"
      ],
      [
        "b",
        "o"
      ],
      [
        "a",
        "c"
      ],
      [
        "t",
        "o"
      ],
      [
        "e",
        "d"
      ],
      [
        "produ",
        "ct"
      ],
      [
        "a",
        "d"
      ],
      [
        "l",
        "i"
      ],
      [
        "p",
        "h"
      ],
      [
        "u",
        "s"
      ],
      [
        "f",
        "o"
      ],
      [
        "-",
        "%"
      ],
      [
        "e",
        "w"
      ],
      [
        "t",
        "a"
      ],
      [
        "at",
        "e"
      ],
      [
        "t",
        "e"
      ],
      [
        "an",
        "d"
      ],
      [
        "u",
        "k"
      ],
      [
        "e",
        "m"
      ],
      [
        "v",
        "i"
      ],
      [
        "f",
        "or"
      ],
      [
        "ph",
        "p"
      ],
      [
        "ag",
        "e"
      ],
      [
        "a",
        "p"
      ],
      [
        "u",
        "t"
      ],
      [
        "r",
        "a"
      ],
      [
        "e",
        "c"
      ],
      [
        "or",
        "g"
      ],
      [
        "n",
        "o"
      ],
      [
        "k",
        "r"
      ],
      [
        "s",
        "e"
      ],
      [
        "/",
        "?"
      ],
      [
        "ar",
        "t"
      ],
      [
        "i",
        "m"
      ],
      [
        "l",
        "a"
      ],
      [
        "u",
        "m"
      ],
      [
        "20",
        "1"
      ],
      [
        "p",
        "o"
      ],
      [
        "lo",
        "g"
      ],
      [
        "er",
        "s"
      ],
      [
        "i",
        "g"
      ],
      [
        "th",
        "e"
      ],
      [
        "1",
        "0"
      ],
      [
        "c",
        "ate"
      ],
      [
        "co",
        "n"
      ],
      [
        "e",
        "b"
      ],
      [
        "es",
        "t"
      ],
      [
        "m",
        "o"
      ],
      [
        "g",
        "or"
      ],
      [
        "i",
        "v"
      ],
      [
        "ar",
        "d"
      ],
      [
        "i",
        "r"
      ],
      [
        "a",
        "u"
      ],
      [
        "p",
        "age"
      ],
      [
        "e",
        "f"
      ],
      [
        "cate",
        "gor"
      ],
      [
        "es",
        "s"
      ],
      [
        "i",
        "e"
      ],
      [
        "a",
        "b"
      ],
      [
        "o",
        "l"
      ],
      [
        "9",
        "9"
      ],
      [
        "m",
        "a"
      ],
      [
        "b",
        "e"
      ],
      [
        "b",
        "d"
      ],
      [
        "8",
        "1"
      ],
      [
        "c",
        "e"
      ],
      [
        "n",
        "ew"
      ],
      [
        "0",
        "0"
      ],
      [
        "at",
        "ion"
      ],
      [
        "9",
        "5"
      ],
      [
        "o",
        "f"
      ],
      [
        "8",
        "3"
      ],
      [
        "s",
        "ho"
      ],
      [
        "/",
        "%"
      ],
      [
        "b",
        "log"
      ],
      [
        "al",
        "l"
      ],
      [
        "s",
        "p"
      ],
      [
        "d",
        "o"
      ],
      [
        "categor",
        "y"
      ],
      [
        "in",
        "fo"
      ],
      [
        "j",
        "o"
      ],
      [
        "8",
        "2"
      ],
      [
        "b",
        "f"
      ],
      [
        "u",
        "p"
      ],
      [
        "ct",
        "ion"
      ],
      [
        "d",
        "i"
      ],
      [
        "u",
        "l"
      ],
      [
        "q",
        "u"
      ],
      [
        "t",
        "er"
      ],
      [
        "r",
        "i"
      ],
      [
        "or",
        "t"
      ],
      [
        "a",
        "y"
      ],
      [
        "in",
        "de"
      ],
      [
        "m",
        "e"
      ],
      [
        "s",
        "h"
      ],
      [
        "an",
        "g"
      ],
      [
        "a",
        "f"
      ],
      [
        "m",
        "ar"
      ],
      [
        "co",
        "l"
      ],
      [
        "product",
        "s"
      ],
      [
        "8",
        "0"
      ],
      [
        "p",
        "r"
      ],
      [
        "inde",
        "x"
      ],
      [
        "v",
        "er"
      ],
      [
        "8",
        "4"
      ],
      [
        "1",
        "1"
      ],
      [
        "20",
        "2"
      ],
      [
        "i",
        "a"
      ],
      [
        "o",
        "d"
      ],
      [
        "new",
        "s"
      ],
      [
        "a",
        "k"
      ],
      [
        "in",
        "e"
      ],
      [
        "t",
        "ag"
      ],
      [
        "p",
        "l"
      ],
      [
        "1",
        "2"
      ],
      [
        "u",
        "b"
      ],
      [
        "w",
        "or"
      ],
      [
        "o",
        "m"
      ],
      [
        "bo",
        "ard"
      ],
      [
        "a",
        "a"
      ],
      [
        "8",
        "8"
      ],
      [
        "s",
        "o"
      ],
      [
        "e",
        "v"
      ],
      [
        "9",
        "4"
      ],
      [
        "p",
        "ar"
      ],
      [
        "b",
        "b"
      ],
      [
        "a",
        "i"
      ],
      [
        "vi",
        "ew"
      ],
      [
        "sho",
        "p"
      ],
      [
        "i",
        "st"
      ],
      [
        "w",
        "h"
      ],
      [
        "o",
        "p"
      ],
      [
        "2",
        "5"
      ],
      [
        "a",
        "e"
      ],
      [
        "k",
        "e"
      ],
      [
        "s",
        "er"
      ],
      [
        "s",
        "ch"
      ],
      [
        "l",
        "es"
      ],
      [
        "b",
        "er"
      ],
      [
        "m",
        "ent"
      ],
      [
        "y",
        "o"
      ],
      [
        "p",
        "e"
      ],
      [
        "t",
        "r"
      ],
      [
        "col",
        "le"
      ],
      [
        "n",
        "e"
      ],
      [
        "ar",
        "ch"
      ],
      [
        "v",
        "e"
      ],
      [
        "b",
        "r"
      ],
      [
        "h",
        "e"
      ],
      [
        "an",
        "t"
      ],
      [
        "g",
        "o"
      ],
      [
        "i",
        "es"
      ],
      [
        "9",
        "0"
      ],
      [
        "d",
        "er"
      ],
      [
        "f",
        "l"
      ],
      [
        "b",
        "a"
      ],
      [
        "8",
        "5"
      ],
      [
        "t",
        "y"
      ],
      [
        "colle",
        "ction"
      ],
      [
        "1",
        "3"
      ],
      [
        "s",
        "c"
      ],
      [
        "li",
        "st"
      ],
      [
        "1",
        "5"
      ],
      [
        "ac",
        "k"
      ],
      [
        "as",
        "s"
      ],
      [
        "9",
        "7"
      ],
      [
        "b",
        "c"
      ],
      [
        "un",
        "g"
      ],
      [
        "e",
        "x"
      ],
      [
        "o",
        "k"
      ],
      [
        "o",
        "s"
      ],
      [
        "f",
        "i"
      ],
      [
        "1",
        "6"
      ],
      [
        "ic",
        "e"
      ],
      [
        "8",
        "6"
      ],
      [
        "p",
        "er"
      ],
      [
        "1",
        "4"
      ],
      [
        "i",
        "k"
      ],
      [
        "f",
        "r"
      ],
      [
        "t",
        "s"
      ],
      [
        "f",
        "e"
      ],
      [
        "i",
        "p"
      ],
      [
        "p",
        "ort"
      ],
      [
        "c",
        "l"
      ],
      [
        "en",
        "d"
      ],
      [
        "=",
        "&"
      ],
      [
        "ar",
        "e"
      ],
      [
        "collection",
        "s"
      ],
      [
        "m",
        "at"
      ],
      [
        "p",
        "a"
      ],
      [
        "i",
        "z"
      ],
      [
        "it",
        "y"
      ],
      [
        "co",
        "r"
      ],
      [
        "8",
        "7"
      ],
      [
        "it",
        "e"
      ],
      [
        "9",
        "1"
      ],
      [
        "g",
        "r"
      ],
      [
        "i",
        "al"
      ],
      [
        "9",
        "3"
      ],
      [
        "f",
        "a"
      ],
      [
        "c",
        "c"
      ],
      [
        "m",
        "an"
      ],
      [
        "ap",
        "p"
      ],
      [
        "d",
        "es"
      ],
      [
        "as",
        "p"
      ],
      [
        "2",
        "4"
      ],
      [
        "ta",
        "il"
      ],
      [
        "w",
        "e"
      ],
      [
        "1",
        "7"
      ],
      [
        "in",
        "t"
      ],
      [
        "il",
        "l"
      ],
      [
        "r",
        "es"
      ],
      [
        "i",
        "o"
      ],
      [
        "u",
        "re"
      ],
      [
        "un",
        "d"
      ],
      [
        "c",
        "k"
      ],
      [
        "ev",
        "ent"
      ],
      [
        "el",
        "l"
      ],
      [
        "g",
        "e"
      ],
      [
        "a",
        "v"
      ],
      [
        "de",
        "tail"
      ],
      [
        "g",
        "u"
      ],
      [
        "b",
        "l"
      ],
      [
        "c",
        "at"
      ],
      [
        "0",
        "3"
      ],
      [
        "0",
        "1"
      ],
      [
        "9",
        "6"
      ],
      [
        "ser",
        "v"
      ],
      [
        "c",
        "re"
      ],
      [
        "9",
        "8"
      ],
      [
        "0",
        "4"
      ],
      [
        "j",
        "e"
      ],
      [
        "2",
        "6"
      ],
      [
        "i",
        "f"
      ],
      [
        "2",
        "3"
      ],
      [
        "m",
        "y"
      ],
      [
        "po",
        "st"
      ],
      [
        "0",
        "5"
      ],
      [
        "te",
        "ch"
      ],
      [
        "ig",
        "n"
      ],
      [
        "g",
        "ro"
      ],
      [
        "b",
        "le"
      ],
      [
        "iv",
        "e"
      ],
      [
        "or",
        "e"
      ],
      [
        "is",
        "h"
      ],
      [
        "bo",
        "ut"
      ],
      [
        "u",
        "e"
      ],
      [
        "0",
        "6"
      ],
      [
        "on",
        "e"
      ],
      [
        "d",
        "a"
      ],
      [
        "0",
        "2"
      ],
      [
        "0",
        "7"
      ],
      [
        "h",
        "a"
      ],
      [
        "c",
        "a"
      ],
      [
        "m",
        "ed"
      ],
      [
        "w",
        "r"
      ],
      [
        "b",
        "u"
      ],
      [
        "t",
        "ra"
      ],
      [
        "on",
        "l"
      ],
      [
        "mar",
        "k"
      ],
      [
        "o",
        "t"
      ],
      [
        "en",
        "s"
      ],
      [
        "er",
        "y"
      ],
      [
        "d",
        "r"
      ],
      [
        "d",
        "is"
      ],
      [
        "m",
        "on"
      ],
      [
        "e",
        "a"
      ],
      [
        "c",
        "r"
      ],
      [
        "k",
        "z"
      ],
      [
        "c",
        "ar"
      ],
      [
        "bb",
        "s"
      ],
      [
        "on",
        "g"
      ],
      [
        "p",
        "la"
      ],
      [
        "p",
        "an"
      ],
      [
        "w",
        "o"
      ],
      [
        "2",
        "7"
      ],
      [
        "art",
        "ic"
      ],
      [
        "lo",
        "w"
      ],
      [
        "in",
        "s"
      ],
      [
        "0",
        "9"
      ],
      [
        "it",
        "h"
      ],
      [
        "a",
        "bout"
      ],
      [
        "ic",
        "k"
      ],
      [
        "con",
        "t"
      ],
      [
        "wor",
        "k"
      ],
      [
        "a",
        "ch"
      ],
      [
        "th",
        "er"
      ],
      [
        "st",
        "r"
      ],
      [
        "ho",
        "me"
      ],
      [
        "20",
        "20"
      ],
      [
        "y",
        "s"
      ],
      [
        "m",
        "in"
      ],
      [
        "se",
        "arch"
      ],
      [
        "u",
        "g"
      ],
      [
        "i",
        "de"
      ],
      [
        "an",
        "s"
      ],
      [
        "le",
        "t"
      ],
      [
        "as",
        "h"
      ],
      [
        "9",
        "2"
      ],
      [
        "for",
        "m"
      ],
      [
        "co",
        "un"
      ],
      [
        "b",
        "y"
      ],
      [
        "l",
        "d"
      ],
      [
        "en",
        "g"
      ],
      [
        "u",
        "st"
      ],
      [
        "a",
        "z"
      ],
      [
        "s",
        "k"
      ],
      [
        "am",
        "p"
      ],
      [
        "w",
        "n"
      ],
      [
        "0",
        "8"
      ],
      [
        "at",
        "h"
      ],
      [
        "b",
        "i"
      ],
      [
        "an",
        "n"
      ],
      [
        "con",
        "ta"
      ],
      [
        "it",
        "em"
      ],
      [
        "ion",
        "s"
      ],
      [
        "s",
        "m"
      ],
      [
        "2",
        "2"
      ],
      [
        "l",
        "y"
      ],
      [
        "g",
        "ra"
      ],
      [
        "al",
        "e"
      ],
      [
        "en",
        "c"
      ],
      [
        "8",
        "9"
      ],
      [
        "s",
        "s"
      ],
      [
        "conta",
        "ct"
      ],
      [
        "bo",
        "ok"
      ],
      [
        "de",
        "l"
      ],
      [
        "ac",
        "e"
      ],
      [
        "3",
        "6"
      ],
      [
        "l",
        "and"
      ],
      [
        "an",
        "ce"
      ],
      [
        "co",
        "de"
      ],
      [
        "ta",
        "ble"
      ],
      [
        "d",
        "b"
      ],
      [
        "f",
        "er"
      ],
      [
        "gro",
        "up"
      ],
      [
        "ho",
        "to"
      ],
      [
        "i",
        "er"
      ],
      [
        "ing",
        "s"
      ],
      [
        "ic",
        "es"
      ],
      [
        "k",
        "t"
      ],
      [
        "pla",
        "y"
      ],
      [
        "i",
        "an"
      ],
      [
        "c",
        "ent"
      ],
      [
        "in",
        "k"
      ],
      [
        "s",
        "u"
      ],
      [
        "onl",
        "ine"
      ],
      [
        "no",
        "t"
      ],
      [
        "or",
        "y"
      ],
      [
        "h",
        "n"
      ],
      [
        "1",
        "9"
      ],
      [
        "m",
        "er"
      ],
      [
        "sho",
        "w"
      ],
      [
        "c",
        "al"
      ],
      [
        "r",
        "y"
      ],
      [
        "w",
        "ith"
      ],
      [
        "ag",
        "es"
      ],
      [
        "or",
        "s"
      ],
      [
        "f",
        "re"
      ],
      [
        "o",
        "ur"
      ],
      [
        "m",
        "en"
      ],
      [
        "s",
        "ub"
      ],
      [
        "y",
        "e"
      ],
      [
        "us",
        "e"
      ],
      [
        "201",
        "9"
      ],
      [
        "a",
        "h"
      ],
      [
        "m",
        "s"
      ],
      [
        "m",
        "as"
      ],
      [
        "an",
        "k"
      ],
      [
        "for",
        "um"
      ],
      [
        "in",
        "ter"
      ],
      [
        "e",
        "p"
      ],
      [
        "g",
        "en"
      ],
      [
        "w",
        "eb"
      ],
      [
        "ar",
        "y"
      ],
      [
        "d",
        "at"
      ],
      [
        "202",
        "1"
      ],
      [
        "d",
        "ay"
      ],
      [
        "k",
        "o"
      ],
      [
        "p",
        "hoto"
      ],
      [
        "qu",
        "e"
      ],
      [
        "g",
        "all"
      ],
      [
        "s",
        "y"
      ],
      [
        "f",
        "in"
      ],
      [
        "ty",
        "pe"
      ],
      [
        "an",
        "c"
      ],
      [
        "f",
        "il"
      ],
      [
        "b",
        "ar"
      ],
      [
        "3",
        "5"
      ],
      [
        "event",
        "s"
      ],
      [
        "v",
        "el"
      ],
      [
        "p",
        "art"
      ],
      [
        "ch",
        "e"
      ],
      [
        "st",
        "er"
      ],
      [
        "ic",
        "s"
      ],
      [
        "ul",
        "t"
      ],
      [
        "artic",
        "le"
      ],
      [
        "au",
        "to"
      ],
      [
        "ur",
        "n"
      ],
      [
        "ig",
        "ht"
      ],
      [
        "am",
        "e"
      ],
      [
        "3",
        "4"
      ],
      [
        "ur",
        "s"
      ],
      [
        "u",
        "d"
      ],
      [
        "l",
        "ic"
      ],
      [
        "g",
        "re"
      ],
      [
        "n",
        "y"
      ],
      [
        "te",
        "am"
      ],
      [
        "p",
        "re"
      ],
      [
        "1",
        "8"
      ],
      [
        "3",
        "0"
      ],
      [
        "a",
        "ct"
      ],
      [
        "c",
        "as"
      ],
      [
        "202",
        "2"
      ],
      [
        "o",
        "b"
      ],
      [
        "t",
        "u"
      ],
      [
        "3",
        "7"
      ],
      [
        "a",
        "de"
      ],
      [
        "v",
        "o"
      ],
      [
        "m",
        "i"
      ],
      [
        "a",
        "w"
      ],
      [
        "m",
        "em"
      ],
      [
        "to",
        "p"
      ],
      [
        "le",
        "g"
      ],
      [
        "201",
        "8"
      ],
      [
        "vi",
        "de"
      ],
      [
        "je",
        "ct"
      ],
      [
        "i",
        "re"
      ],
      [
        "i",
        "en"
      ],
      [
        "c",
        "f"
      ],
      [
        "au",
        "th"
      ],
      [
        "2",
        "1"
      ],
      [
        "cont",
        "ent"
      ],
      [
        "4",
        "5"
      ],
      [
        "serv",
        "ices"
      ],
      [
        "wor",
        "ld"
      ],
      [
        "n",
        "a"
      ],
      [
        "li",
        "o"
      ],
      [
        "li",
        "g"
      ],
      [
        "gall",
        "ery"
      ],
      [
        "is",
        "s"
      ],
      [
        "b",
        "us"
      ],
      [
        "fo",
        "od"
      ],
      [
        "o",
        "g"
      ],
      [
        "asp",
        "x"
      ],
      [
        "d",
        "s"
      ],
      [
        "201",
        "7"
      ],
      [
        "jo",
        "b"
      ],
      [
        "s",
        "up"
      ],
      [
        "th",
        "em"
      ],
      [
        "t",
        "on"
      ],
      [
        "pr",
        "ess"
      ],
      [
        "mark",
        "et"
      ],
      [
        "ho",
        "w"
      ],
      [
        "a",
        "st"
      ],
      [
        "des",
        "ign"
      ],
      [
        "it",
        "al"
      ],
      [
        "yo",
        "ur"
      ],
      [
        "4",
        "4"
      ],
      [
        "ation",
        "s"
      ],
      [
        "p",
        "t"
      ],
      [
        "f",
        "f"
      ],
      [
        "n",
        "et"
      ],
      [
        "w",
        "er"
      ],
      [
        "em",
        "ent"
      ],
      [
        "it",
        "s"
      ],
      [
        "t",
        "ar"
      ],
      [
        "g",
        "et"
      ],
      [
        "-",
        "-"
      ],
      [
        "e",
        "k"
      ],
      [
        "s",
        "ol"
      ],
      [
        "w",
        "p"
      ],
      [
        "ic",
        "a"
      ],
      [
        "l",
        "er"
      ],
      [
        "v",
        "al"
      ],
      [
        "s",
        "a"
      ],
      [
        "yo",
        "u"
      ],
      [
        "com",
        "p"
      ],
      [
        "ic",
        "al"
      ],
      [
        "w",
        "est"
      ],
      [
        "ad",
        "d"
      ],
      [
        "f",
        "t"
      ],
      [
        "fo",
        "lio"
      ],
      [
        "il",
        "d"
      ],
      [
        "l",
        "ang"
      ],
      [
        "h",
        "er"
      ],
      [
        "f",
        "low"
      ],
      [
        "v",
        "in"
      ],
      [
        "c",
        "i"
      ],
      [
        "log",
        "in"
      ],
      [
        "t",
        "an"
      ],
      [
        "s",
        "w"
      ],
      [
        "al",
        "th"
      ],
      [
        "port",
        "folio"
      ],
      [
        "auth",
        "or"
      ],
      [
        "i",
        "ch"
      ],
      [
        "fi",
        "le"
      ],
      [
        "4",
        "6"
      ],
      [
        "n",
        "er"
      ],
      [
        "i",
        "j"
      ],
      [
        "on",
        "s"
      ],
      [
        "m",
        "it"
      ],
      [
        "201",
        "6"
      ],
      [
        "3",
        "3"
      ],
      [
        "p",
        "al"
      ],
      [
        "5",
        "5"
      ],
      [
        "2",
        "9"
      ],
      [
        "z",
        "o"
      ],
      [
        "of",
        "f"
      ],
      [
        "vi",
        "r"
      ],
      [
        "pro",
        "ject"
      ],
      [
        "ac",
        "c"
      ],
      [
        "b",
        "ro"
      ],
      [
        "v",
        "en"
      ],
      [
        "4",
        "7"
      ],
      [
        "ke",
        "y"
      ],
      [
        "p",
        "or"
      ],
      [
        "z",
        "h"
      ],
      [
        "o",
        "ol"
      ],
      [
        "v",
        "is"
      ],
      [
        "h",
        "r"
      ],
      [
        "p",
        "s"
      ],
      [
        "v",
        "ent"
      ],
      [
        "z",
        "e"
      ],
      [
        "p",
        "i"
      ],
      [
        "st",
        "ore"
      ],
      [
        "dis",
        "play"
      ],
      [
        "c",
        "ra"
      ],
      [
        "f",
        "it"
      ],
      [
        "202",
        "4"
      ],
      [
        "2",
        "8"
      ],
      [
        "lig",
        "ht"
      ],
      [
        "st",
        "e"
      ],
      [
        "wh",
        "at"
      ],
      [
        "b",
        "as"
      ],
      [
        "c",
        "an"
      ],
      [
        "blog",
        "s"
      ],
      [
        "sp",
        "ort"
      ],
      [
        "al",
        "s"
      ],
      [
        "c",
        "am"
      ],
      [
        "b",
        "re"
      ],
      [
        "is",
        "e"
      ],
      [
        "t",
        "im"
      ],
      [
        "6",
        "6"
      ],
      [
        "com",
        "m"
      ],
      [
        "g",
        "i"
      ],
      [
        "l",
        "t"
      ],
      [
        "in",
        "ess"
      ],
      [
        "=",
        "%"
      ],
      [
        "a",
        "ir"
      ],
      [
        "wor",
        "d"
      ],
      [
        "iv",
        "es"
      ],
      [
        "b",
        "al"
      ],
      [
        "co",
        "p"
      ],
      [
        "l",
        "u"
      ],
      [
        "or",
        "der"
      ],
      [
        "b",
        "il"
      ],
      [
        "e",
        "le"
      ],
      [
        "ma",
        "x"
      ],
      [
        "c",
        "are"
      ],
      [
        "di",
        "re"
      ],
      [
        "d",
        "en"
      ],
      [
        "t",
        "i"
      ],
      [
        "serv",
        "ice"
      ],
      [
        "u",
        "di"
      ],
      [
        "7",
        "7"
      ],
      [
        "in",
        "o"
      ],
      [
        "gra",
        "ph"
      ],
      [
        "ro",
        "m"
      ],
      [
        "he",
        "alth"
      ],
      [
        "re",
        "g"
      ],
      [
        "h",
        "el"
      ],
      [
        "c",
        "art"
      ],
      [
        "c",
        "le"
      ],
      [
        "201",
        "5"
      ],
      [
        "r",
        "u"
      ],
      [
        "le",
        "y"
      ],
      [
        "g",
        "l"
      ],
      [
        "jo",
        "hn"
      ],
      [
        "5",
        "0"
      ],
      [
        "s",
        "on"
      ],
      [
        "n",
        "u"
      ],
      [
        "p",
        "ages"
      ],
      [
        "re",
        "ad"
      ],
      [
        "5",
        "6"
      ],
      [
        "par",
        "k"
      ],
      [
        "l",
        "in"
      ],
      [
        "pl",
        "y"
      ],
      [
        "m",
        "et"
      ],
      [
        "m",
        "us"
      ],
      [
        "ar",
        "i"
      ],
      [
        "y",
        "a"
      ],
      [
        "bo",
        "x"
      ],
      [
        "mo",
        "de"
      ],
      [
        "bus",
        "iness"
      ],
      [
        "d",
        "y"
      ],
      [
        "d",
        "on"
      ],
      [
        "g",
        "er"
      ],
      [
        "p",
        "ap"
      ],
      [
        "ac",
        "y"
      ],
      [
        "b",
        "est"
      ],
      [
        "le",
        "d"
      ],
      [
        "in",
        "a"
      ],
      [
        "k",
        "a"
      ],
      [
        "202",
        "3"
      ],
      [
        "j",
        "i"
      ],
      [
        "t",
        "re"
      ],
      [
        "t",
        "en"
      ],
      [
        "it",
        "ion"
      ],
      [
        "g",
        "a"
      ],
      [
        "br",
        "and"
      ],
      [
        "go",
        "od"
      ],
      [
        "ang",
        "e"
      ],
      [
        "cl",
        "ass"
      ],
      [
        "s",
        "et"
      ],
      [
        "pro",
        "file"
      ],
      [
        "s",
        "al"
      ],
      [
        "ho",
        "t"
      ],
      [
        "n",
        "um"
      ],
      [
        "o",
        "ut"
      ],
      [
        "m",
        "ag"
      ],
      [
        "enc",
        "y"
      ],
      [
        "v",
        "il"
      ],
      [
        "n",
        "g"
      ],
      [
        "vide",
        "o"
      ],
      [
        "ch",
        "en"
      ],
      [
        "dire",
        "ct"
      ],
      [
        "5",
        "7"
      ],
      [
        "c",
        "d"
      ],
      [
        "ar",
        "m"
      ],
      [
        "id",
        "x"
      ],
      [
        "b",
        "en"
      ],
      [
        "w",
        "at"
      ],
      [
        "fl",
        "or"
      ],
      [
        "com",
        "pan"
      ],
      [
        "ec",
        "k"
      ],
      [
        "cre",
        "at"
      ],
      [
        "wo",
        "od"
      ],
      [
        "4",
        "0"
      ],
      [
        "g",
        "ol"
      ],
      [
        "p",
        "et"
      ],
      [
        "j",
        "a"
      ],
      [
        "w",
        "in"
      ],
      [
        "cl",
        "ub"
      ],
      [
        "d",
        "ate"
      ],
      [
        "b",
        "ur"
      ],
      [
        "no",
        "w"
      ],
      [
        "com",
        "ment"
      ],
      [
        "m",
        "es"
      ],
      [
        "fre",
        "e"
      ],
      [
        "sch",
        "ool"
      ],
      [
        "ch",
        "o"
      ],
      [
        "a",
        "il"
      ],
      [
        "h",
        "y"
      ],
      [
        "fo",
        "to"
      ],
      [
        "g",
        "y"
      ],
      [
        "el",
        "d"
      ],
      [
        "b",
        "et"
      ],
      [
        "00",
        "00"
      ],
      [
        "3",
[...]
